{
  "version": "1.0",
  "truncation": null,
  "padding": null,
  "added_tokens": [
    {
      "id": 0,
      "content": "[UNK]",
      "single_word": false,
      "lstrip": false,
      "rstrip": false,
      "normalized": false,
      "special": true
    },
    {
      "id": 1,
      "content": "[PAD]",
      "single_word": false,
      "lstrip": false,
      "rstrip": false,
      "normalized": false,
      "special": true
    },
    {
      "id": 2,
      "content": "[CLS]",
      "single_word": false,
      "lstrip": false,
      "rstrip": false,
      "normalized": false,
      "special": true
    },
    {
      "id": 3,
      "content": "[SEP]",
      "single_word": false,
      "lstrip": false,
      "rstrip": false,
      "normalized": false,
      "special": true
    },
    {
      "id": 4,
      "content": "[MASK]",
      "single_word": false,
      "lstrip": false,
      "rstrip": false,
      "normalized": false,
      "special": true
    }
  ],
  "normalizer": null,
  "pre_tokenizer": {
    "type": "Whitespace"
  },
  "post_processor": null,
  "decoder": null,
  "model": {
    "type": "BPE",
    "dropout": null,
    "unk_token": "[UNK]",
    "continuing_subword_prefix": null,
    "end_of_word_suffix": null,
    "fuse_unk": false,
    "byte_fallback": false,
    "ignore_merges": false,
    "vocab": {
      "[UNK]": 0,
      "[PAD]": 1,
      "[CLS]": 2,
      "[SEP]": 3,
      "[MASK]": 4,
      "!": 5,
      "\"": 6,
      "#": 7,
      "$": 8,
      "%": 9,
      "&": 10,
      "'": 11,
      "(": 12,
      ")": 13,
      "*": 14,
      "+": 15,
      ",": 16,
      "-": 17,
      ".": 18,
      "/": 19,
      "0": 20,
      "1": 21,
      "2": 22,
      "3": 23,
      "4": 24,
      "5": 25,
      "6": 26,
      "7": 27,
      "8": 28,
      "9": 29,
      ":": 30,
      ";": 31,
      "<": 32,
      "=": 33,
      ">": 34,
      "?": 35,
      "@": 36,
      "A": 37,
      "B": 38,
      "C": 39,
      "D": 40,
      "E": 41,
      "F": 42,
      "G": 43,
      "H": 44,
      "I": 45,
      "J": 46,
      "K": 47,
      "L": 48,
      "M": 49,
      "N": 50,
      "O": 51,
      "P": 52,
      "Q": 53,
      "R": 54,
      "S": 55,
      "T": 56,
      "U": 57,
      "V": 58,
      "W": 59,
      "X": 60,
      "Y": 61,
      "Z": 62,
      "[": 63,
      "\\": 64,
      "]": 65,
      "^": 66,
      "_": 67,
      "`": 68,
      "a": 69,
      "b": 70,
      "c": 71,
      "d": 72,
      "e": 73,
      "f": 74,
      "g": 75,
      "h": 76,
      "i": 77,
      "j": 78,
      "k": 79,
      "l": 80,
      "m": 81,
      "n": 82,
      "o": 83,
      "p": 84,
      "q": 85,
      "r": 86,
      "s": 87,
      "t": 88,
      "u": 89,
      "v": 90,
      "w": 91,
      "x": 92,
      "y": 93,
      "z": 94,
      "|": 95,
      "}": 96,
      "~": 97,
      "": 98,
      "": 99,
      "¡": 100,
      "¢": 101,
      "£": 102,
      "¥": 103,
      "§": 104,
      "°": 105,
      "±": 106,
      "²": 107,
      "³": 108,
      "´": 109,
      "µ": 110,
      "·": 111,
      "º": 112,
      "½": 113,
      "¿": 114,
      "Á": 115,
      "Ä": 116,
      "Å": 117,
      "Æ": 118,
      "Ç": 119,
      "É": 120,
      "Í": 121,
      "Î": 122,
      "Ñ": 123,
      "Ó": 124,
      "Ö": 125,
      "×": 126,
      "Ø": 127,
      "Ú": 128,
      "Ü": 129,
      "Þ": 130,
      "ß": 131,
      "à": 132,
      "á": 133,
      "â": 134,
      "ã": 135,
      "ä": 136,
      "å": 137,
      "æ": 138,
      "ç": 139,
      "è": 140,
      "é": 141,
      "ê": 142,
      "ë": 143,
      "ì": 144,
      "í": 145,
      "î": 146,
      "ï": 147,
      "ð": 148,
      "ñ": 149,
      "ò": 150,
      "ó": 151,
      "ô": 152,
      "ö": 153,
      "ø": 154,
      "ù": 155,
      "ú": 156,
      "û": 157,
      "ü": 158,
      "ý": 159,
      "þ": 160,
      "Ā": 161,
      "ā": 162,
      "ă": 163,
      "ą": 164,
      "ć": 165,
      "Č": 166,
      "č": 167,
      "Đ": 168,
      "đ": 169,
      "Ē": 170,
      "ē": 171,
      "Ĕ": 172,
      "ĕ": 173,
      "ė": 174,
      "ę": 175,
      "ğ": 176,
      "ħ": 177,
      "ī": 178,
      "İ": 179,
      "ı": 180,
      "Ľ": 181,
      "Ł": 182,
      "ł": 183,
      "ń": 184,
      "Ō": 185,
      "ō": 186,
      "œ": 187,
      "ř": 188,
      "Ś": 189,
      "ś": 190,
      "Ş": 191,
      "ş": 192,
      "Š": 193,
      "š": 194,
      "ţ": 195,
      "ũ": 196,
      "ū": 197,
      "ů": 198,
      "ų": 199,
      "ź": 200,
      "Ż": 201,
      "ż": 202,
      "Ž": 203,
      "ž": 204,
      "ơ": 205,
      "ư": 206,
      "ǎ": 207,
      "ǔ": 208,
      "Ș": 209,
      "ș": 210,
      "ț": 211,
      "ȯ": 212,
      "ɐ": 213,
      "ɑ": 214,
      "ɒ": 215,
      "ɔ": 216,
      "ə": 217,
      "ɛ": 218,
      "ɜ": 219,
      "ɡ": 220,
      "ɢ": 221,
      "ɪ": 222,
      "ɫ": 223,
      "ɳ": 224,
      "ɽ": 225,
      "ɾ": 226,
      "ʁ": 227,
      "ʃ": 228,
      "ʊ": 229,
      "ʋ": 230,
      "ʒ": 231,
      "ʔ": 232,
      "ʕ": 233,
      "ʲ": 234,
      "ʻ": 235,
      "ʼ": 236,
      "ʾ": 237,
      "ʿ": 238,
      "ˈ": 239,
      "ˌ": 240,
      "ː": 241,
      "́": 242,
      "̃": 243,
      "̍": 244,
      "̥": 245,
      "̯": 246,
      "͍": 247,
      "Α": 248,
      "Δ": 249,
      "Κ": 250,
      "Ν": 251,
      "Π": 252,
      "Τ": 253,
      "Φ": 254,
      "Χ": 255,
      "Ω": 256,
      "ά": 257,
      "έ": 258,
      "ή": 259,
      "ί": 260,
      "α": 261,
      "β": 262,
      "γ": 263,
      "δ": 264,
      "ε": 265,
      "η": 266,
      "θ": 267,
      "ι": 268,
      "κ": 269,
      "λ": 270,
      "μ": 271,
      "ν": 272,
      "ξ": 273,
      "ο": 274,
      "π": 275,
      "ρ": 276,
      "ς": 277,
      "σ": 278,
      "τ": 279,
      "υ": 280,
      "χ": 281,
      "ψ": 282,
      "ω": 283,
      "ό": 284,
      "ύ": 285,
      "ώ": 286,
      "А": 287,
      "Б": 288,
      "В": 289,
      "Г": 290,
      "К": 291,
      "П": 292,
      "Р": 293,
      "С": 294,
      "У": 295,
      "Х": 296,
      "Я": 297,
      "а": 298,
      "в": 299,
      "г": 300,
      "д": 301,
      "е": 302,
      "ж": 303,
      "з": 304,
      "и": 305,
      "й": 306,
      "к": 307,
      "л": 308,
      "м": 309,
      "н": 310,
      "о": 311,
      "п": 312,
      "р": 313,
      "с": 314,
      "т": 315,
      "у": 316,
      "х": 317,
      "ц": 318,
      "ш": 319,
      "ъ": 320,
      "ы": 321,
      "ь": 322,
      "ю": 323,
      "я": 324,
      "є": 325,
      "ֵ": 326,
      "ֶ": 327,
      "ָ": 328,
      "ֹ": 329,
      "ּ": 330,
      "א": 331,
      "ב": 332,
      "ג": 333,
      "ה": 334,
      "ו": 335,
      "ז": 336,
      "ח": 337,
      "י": 338,
      "ל": 339,
      "ם": 340,
      "מ": 341,
      "ן": 342,
      "נ": 343,
      "ס": 344,
      "ף": 345,
      "פ": 346,
      "צ": 347,
      "ר": 348,
      "ש": 349,
      "ת": 350,
      "ء": 351,
      "أ": 352,
      "إ": 353,
      "ا": 354,
      "ب": 355,
      "ة": 356,
      "ت": 357,
      "ث": 358,
      "ج": 359,
      "ح": 360,
      "خ": 361,
      "د": 362,
      "ذ": 363,
      "ر": 364,
      "س": 365,
      "ش": 366,
      "ص": 367,
      "ع": 368,
      "ف": 369,
      "ق": 370,
      "ك": 371,
      "ل": 372,
      "م": 373,
      "ن": 374,
      "ه": 375,
      "و": 376,
      "ي": 377,
      "ܐ": 378,
      "ܕ": 379,
      "ܗ": 380,
      "ܝ": 381,
      "ܠ": 382,
      "ܢ": 383,
      "ܬ": 384,
      "ܲ": 385,
      "ܵ": 386,
      "ं": 387,
      "अ": 388,
      "ई": 389,
      "क": 390,
      "ग": 391,
      "ण": 392,
      "त": 393,
      "द": 394,
      "न": 395,
      "प": 396,
      "ब": 397,
      "म": 398,
      "य": 399,
      "र": 400,
      "ल": 401,
      "व": 402,
      "स": 403,
      "ह": 404,
      "ा": 405,
      "ि": 406,
      "ु": 407,
      "ू": 408,
      "े": 409,
      "ै": 410,
      "्": 411,
      "আ": 412,
      "ল": 413,
      "হ": 414,
      "া": 415,
      "্": 416,
      "ਅ": 417,
      "ਲ": 418,
      "ਹ": 419,
      "ਾ": 420,
      "ੁ": 421,
      "ੱ": 422,
      "അ": 423,
      "ള": 424,
      "ഹ": 425,
      "ാ": 426,
      "്": 427,
      "ก": 428,
      "ค": 429,
      "ง": 430,
      "ช": 431,
      "ซ": 432,
      "ญ": 433,
      "ฐ": 434,
      "ณ": 435,
      "ด": 436,
      "ต": 437,
      "น": 438,
      "บ": 439,
      "ป": 440,
      "พ": 441,
      "ภ": 442,
      "ม": 443,
      "ย": 444,
      "ร": 445,
      "ล": 446,
      "ว": 447,
      "ศ": 448,
      "ษ": 449,
      "ส": 450,
      "ห": 451,
      "อ": 452,
      "ฮ": 453,
      "ะ": 454,
      "ั": 455,
      "า": 456,
      "ิ": 457,
      "ี": 458,
      "ึ": 459,
      "เ": 460,
      "แ": 461,
      "ไ": 462,
      "็": 463,
      "่": 464,
      "้": 465,
      "๊": 466,
      "์": 467,
      "Ⴀ": 468,
      "Ⴂ": 469,
      "Ⴃ": 470,
      "Ⴈ": 471,
      "Ⴌ": 472,
      "Ⴕ": 473,
      "Ⴟ": 474,
      "ა": 475,
      "ბ": 476,
      "გ": 477,
      "დ": 478,
      "ე": 479,
      "ვ": 480,
      "ზ": 481,
      "თ": 482,
      "ი": 483,
      "კ": 484,
      "ლ": 485,
      "მ": 486,
      "ნ": 487,
      "ო": 488,
      "პ": 489,
      "ჟ": 490,
      "რ": 491,
      "ს": 492,
      "ტ": 493,
      "უ": 494,
      "ფ": 495,
      "ქ": 496,
      "ღ": 497,
      "ყ": 498,
      "შ": 499,
      "ჩ": 500,
      "ც": 501,
      "ძ": 502,
      "წ": 503,
      "ჭ": 504,
      "ხ": 505,
      "ჯ": 506,
      "ჰ": 507,
      "ჱ": 508,
      "ჲ": 509,
      "ჳ": 510,
      "ჴ": 511,
      "ჵ": 512,
      "ჶ": 513,
      "ჷ": 514,
      "ჸ": 515,
      "ჹ": 516,
      "ჺ": 517,
      "჻": 518,
      "ᵻ": 519,
      "ḍ": 520,
      "ḏ": 521,
      "Ḥ": 522,
      "ḥ": 523,
      "ḷ": 524,
      "ṃ": 525,
      "ṅ": 526,
      "ṇ": 527,
      "ṛ": 528,
      "ṣ": 529,
      "ṭ": 530,
      "ṯ": 531,
      "ạ": 532,
      "ả": 533,
      "ấ": 534,
      "ầ": 535,
      "ậ": 536,
      "ắ": 537,
      "ễ": 538,
      "ệ": 539,
      "ị": 540,
      "ọ": 541,
      "ỏ": 542,
      "ỗ": 543,
      "ộ": 544,
      "ớ": 545,
      "ứ": 546,
      "ử": 547,
      "ữ": 548,
      "ỳ": 549,
      "ỹ": 550,
      "ἀ": 551,
      "ἰ": 552,
      "ὀ": 553,
      "ὁ": 554,
      "ὑ": 555,
      "​": 556,
      "‐": 557,
      "‑": 558,
      "–": 559,
      "—": 560,
      "―": 561,
      "‘": 562,
      "’": 563,
      "“": 564,
      "”": 565,
      "„": 566,
      "†": 567,
      "‡": 568,
      "•": 569,
      "…": 570,
      "′": 571,
      "″": 572,
      "⁄": 573,
      "₣": 574,
      "₤": 575,
      "€": 576,
      "₹": 577,
      "⅓": 578,
      "⅔": 579,
      "→": 580,
      "−": 581,
      "≡": 582,
      "≤": 583,
      "①": 584,
      "☉": 585,
      "☫": 586,
      "♀": 587,
      "♭": 588,
      "♯": 589,
      "⚳": 590,
      "〈": 591,
      "〉": 592,
      "〜": 593,
      "あ": 594,
      "い": 595,
      "う": 596,
      "お": 597,
      "か": 598,
      "が": 599,
      "き": 600,
      "ぎ": 601,
      "く": 602,
      "ぐ": 603,
      "け": 604,
      "こ": 605,
      "ご": 606,
      "さ": 607,
      "し": 608,
      "す": 609,
      "ず": 610,
      "ぜ": 611,
      "た": 612,
      "だ": 613,
      "ち": 614,
      "っ": 615,
      "つ": 616,
      "と": 617,
      "な": 618,
      "に": 619,
      "の": 620,
      "は": 621,
      "ば": 622,
      "ひ": 623,
      "ふ": 624,
      "ほ": 625,
      "ま": 626,
      "み": 627,
      "め": 628,
      "も": 629,
      "ゃ": 630,
      "ゆ": 631,
      "ょ": 632,
      "ら": 633,
      "り": 634,
      "る": 635,
      "れ": 636,
      "わ": 637,
      "を": 638,
      "ん": 639,
      "ァ": 640,
      "ア": 641,
      "ィ": 642,
      "イ": 643,
      "ゥ": 644,
      "ェ": 645,
      "エ": 646,
      "ォ": 647,
      "オ": 648,
      "カ": 649,
      "ガ": 650,
      "キ": 651,
      "ク": 652,
      "グ": 653,
      "ゲ": 654,
      "コ": 655,
      "サ": 656,
      "シ": 657,
      "ジ": 658,
      "ス": 659,
      "ズ": 660,
      "セ": 661,
      "タ": 662,
      "ダ": 663,
      "チ": 664,
      "ッ": 665,
      "ツ": 666,
      "テ": 667,
      "デ": 668,
      "ト": 669,
      "ド": 670,
      "ナ": 671,
      "ニ": 672,
      "ネ": 673,
      "ノ": 674,
      "ハ": 675,
      "バ": 676,
      "パ": 677,
      "フ": 678,
      "ブ": 679,
      "プ": 680,
      "ヘ": 681,
      "ベ": 682,
      "マ": 683,
      "ミ": 684,
      "ム": 685,
      "モ": 686,
      "ャ": 687,
      "ュ": 688,
      "ョ": 689,
      "ラ": 690,
      "リ": 691,
      "ル": 692,
      "レ": 693,
      "ロ": 694,
      "ン": 695,
      "ヴ": 696,
      "・": 697,
      "ー": 698,
      "一": 699,
      "七": 700,
      "下": 701,
      "世": 702,
      "丙": 703,
      "中": 704,
      "主": 705,
      "乃": 706,
      "之": 707,
      "乙": 708,
      "九": 709,
      "二": 710,
      "云": 711,
      "人": 712,
      "今": 713,
      "付": 714,
      "作": 715,
      "侗": 716,
      "依": 717,
      "信": 718,
      "傳": 719,
      "儚": 720,
      "充": 721,
      "光": 722,
      "全": 723,
      "兵": 724,
      "其": 725,
      "具": 726,
      "円": 727,
      "再": 728,
      "出": 729,
      "判": 730,
      "前": 731,
      "剛": 732,
      "劇": 733,
      "劉": 734,
      "動": 735,
      "化": 736,
      "北": 737,
      "华": 738,
      "厂": 739,
      "去": 740,
      "古": 741,
      "可": 742,
      "台": 743,
      "史": 744,
      "同": 745,
      "名": 746,
      "君": 747,
      "吳": 748,
      "周": 749,
      "命": 750,
      "和": 751,
      "咲": 752,
      "善": 753,
      "四": 754,
      "國": 755,
      "園": 756,
      "圣": 757,
      "在": 758,
      "坂": 759,
      "堤": 760,
      "場": 761,
      "塘": 762,
      "夕": 763,
      "大": 764,
      "天": 765,
      "夫": 766,
      "女": 767,
      "妙": 768,
      "姚": 769,
      "子": 770,
      "孟": 771,
      "守": 772,
      "安": 773,
      "宋": 774,
      "完": 775,
      "宗": 776,
      "宝": 777,
      "宫": 778,
      "寝": 779,
      "寺": 780,
      "小": 781,
      "少": 782,
      "尾": 783,
      "山": 784,
      "岳": 785,
      "川": 786,
      "州": 787,
      "巳": 788,
      "市": 789,
      "師": 790,
      "平": 791,
      "广": 792,
      "庆": 793,
      "府": 794,
      "座": 795,
      "廬": 796,
      "建": 797,
      "式": 798,
      "張": 799,
      "彌": 800,
      "彩": 801,
      "彼": 802,
      "後": 803,
      "御": 804,
      "德": 805,
      "思": 806,
      "愛": 807,
      "憑": 808,
      "憶": 809,
      "應": 810,
      "懷": 811,
      "战": 812,
      "戦": 813,
      "扈": 814,
      "技": 815,
      "拉": 816,
      "拳": 817,
      "挑": 818,
      "揺": 819,
      "攻": 820,
      "放": 821,
      "政": 822,
      "散": 823,
      "斯": 824,
      "方": 825,
      "日": 826,
      "旦": 827,
      "旭": 828,
      "昌": 829,
      "明": 830,
      "星": 831,
      "春": 832,
      "晋": 833,
      "景": 834,
      "曦": 835,
      "月": 836,
      "望": 837,
      "未": 838,
      "本": 839,
      "李": 840,
      "村": 841,
      "杜": 842,
      "束": 843,
      "来": 844,
      "林": 845,
      "桜": 846,
      "梶": 847,
      "棘": 848,
      "椎": 849,
      "楊": 850,
      "楚": 851,
      "榮": 852,
      "橘": 853,
      "機": 854,
      "正": 855,
      "殻": 856,
      "殿": 857,
      "母": 858,
      "水": 859,
      "汉": 860,
      "沂": 861,
      "沙": 862,
      "河": 863,
      "泗": 864,
      "波": 865,
      "泣": 866,
      "洪": 867,
      "淹": 868,
      "清": 869,
      "湯": 870,
      "漢": 871,
      "澄": 872,
      "澤": 873,
      "火": 874,
      "灯": 875,
      "灵": 876,
      "灼": 877,
      "焼": 878,
      "熱": 879,
      "物": 880,
      "狐": 881,
      "狸": 882,
      "玄": 883,
      "王": 884,
      "玩": 885,
      "珂": 886,
      "珙": 887,
      "球": 888,
      "理": 889,
      "琦": 890,
      "琪": 891,
      "瓊": 892,
      "生": 893,
      "田": 894,
      "畢": 895,
      "番": 896,
      "瘡": 897,
      "白": 898,
      "皮": 899,
      "真": 900,
      "砲": 901,
      "礮": 902,
      "祈": 903,
      "神": 904,
      "祠": 905,
      "秋": 906,
      "空": 907,
      "立": 908,
      "精": 909,
      "約": 910,
      "絵": 911,
      "織": 912,
      "義": 913,
      "翠": 914,
      "者": 915,
      "耕": 916,
      "肖": 917,
      "胡": 918,
      "膀": 919,
      "臂": 920,
      "興": 921,
      "良": 922,
      "花": 923,
      "芳": 924,
      "芽": 925,
      "若": 926,
      "英": 927,
      "藕": 928,
      "藥": 929,
      "蘄": 930,
      "蘇": 931,
      "行": 932,
      "裁": 933,
      "規": 934,
      "覺": 935,
      "观": 936,
      "解": 937,
      "記": 938,
      "誓": 939,
      "誡": 940,
      "誰": 941,
      "謎": 942,
      "许": 943,
      "谭": 944,
      "豪": 945,
      "豫": 946,
      "費": 947,
      "贵": 948,
      "赤": 949,
      "趙": 950,
      "足": 951,
      "跡": 952,
      "転": 953,
      "辛": 954,
      "逆": 955,
      "遇": 956,
      "運": 957,
      "過": 958,
      "遠": 959,
      "選": 960,
      "邦": 961,
      "邱": 962,
      "部": 963,
      "郭": 964,
      "都": 965,
      "酈": 966,
      "里": 967,
      "野": 968,
      "金": 969,
      "銃": 970,
      "鋼": 971,
      "錄": 972,
      "錡": 973,
      "鍵": 974,
      "鐵": 975,
      "钱": 976,
      "铁": 977,
      "關": 978,
      "防": 979,
      "阿": 980,
      "陈": 981,
      "陳": 982,
      "陽": 983,
      "隊": 984,
      "階": 985,
      "集": 986,
      "雪": 987,
      "雲": 988,
      "霖": 989,
      "霹": 990,
      "靂": 991,
      "韓": 992,
      "願": 993,
      "顯": 994,
      "颜": 995,
      "马": 996,
      "高": 997,
      "龍": 998,
      "대": 999,
      "독": 1000,
      "라": 1001,
      "립": 1002,
      "병": 1003,
      "보": 1004,
      "부": 1005,
      "알": 1006,
      "연": 1007,
      "제": 1008,
      "ﷲ": 1009,
      "ﻋ": 1010,
      "﻿": 1011,
      "／": 1012,
      "３": 1013,
      "～": 1014,
      "�": 1015,
      "th": 1016,
      "in": 1017,
      "er": 1018,
      "an": 1019,
      "the": 1020,
      "on": 1021,
      "ed": 1022,
      "re": 1023,
      "at": 1024,
      "or": 1025,
      "en": 1026,
      "st": 1027,
      "al": 1028,
      "ar": 1029,
      "and": 1030,
      "of": 1031,
      "as": 1032,
      "es": 1033,
      "is": 1034,
      "ing": 1035,
      "to": 1036,
      "it": 1037,
      "ou": 1038,
      "ic": 1039,
      "ion": 1040,
      "he": 1041,
      "le": 1042,
      "ro": 1043,
      "ac": 1044,
      "il": 1045,
      "ent": 1046,
      "ad": 1047,
      "se": 1048,
      "am": 1049,
      "om": 1050,
      "be": 1051,
      "ly": 1052,
      "ch": 1053,
      "ur": 1054,
      "was": 1055,
      "for": 1056,
      "de": 1057,
      "ve": 1058,
      "The": 1059,
      "ol": 1060,
      "ir": 1061,
      "im": 1062,
      "-@": 1063,
      "@-@": 1064,
      "ig": 1065,
      "ver": 1066,
      "ow": 1067,
      "wh": 1068,
      "un": 1069,
      "ter": 1070,
      "ith": 1071,
      "ay": 1072,
      "ce": 1073,
      "ation": 1074,
      "con": 1075,
      "that": 1076,
      "with": 1077,
      "ag": 1078,
      "ct": 1079,
      "id": 1080,
      "te": 1081,
      "us": 1082,
      "by": 1083,
      "el": 1084,
      "ul": 1085,
      "ri": 1086,
      "ot": 1087,
      "ere": 1088,
      "ap": 1089,
      "res": 1090,
      "et": 1091,
      "19": 1092,
      "op": 1093,
      "ain": 1094,
      "com": 1095,
      "rom": 1096,
      "ers": 1097,
      "pl": 1098,
      "um": 1099,
      "ut": 1100,
      "ab": 1101,
      "oun": 1102,
      "all": 1103,
      "00": 1104,
      "his": 1105,
      "mo": 1106,
      "ist": 1107,
      "su": 1108,
      "are": 1109,
      "from": 1110,
      "pe": 1111,
      "pro": 1112,
      "In": 1113,
      "sh": 1114,
      "ne": 1115,
      "li": 1116,
      "tr": 1117,
      "ate": 1118,
      "cl": 1119,
      "os": 1120,
      "ther": 1121,
      "art": 1122,
      "ies": 1123,
      "em": 1124,
      "were": 1125,
      "od": 1126,
      "ong": 1127,
      "igh": 1128,
      "est": 1129,
      "ex": 1130,
      "ak": 1131,
      "oc": 1132,
      "ill": 1133,
      "ard": 1134,
      "ld": 1135,
      "ich": 1136,
      "ast": 1137,
      "ish": 1138,
      "di": 1139,
      "ber": 1140,
      "ant": 1141,
      "gh": 1142,
      "ity": 1143,
      "ort": 1144,
      "ame": 1145,
      "ated": 1146,
      "per": 1147,
      "man": 1148,
      "ess": 1149,
      "ive": 1150,
      "qu": 1151,
      "ment": 1152,
      "als": 1153,
      "out": 1154,
      "fe": 1155,
      "ack": 1156,
      "end": 1157,
      "vi": 1158,
      "had": 1159,
      "one": 1160,
      "ear": 1161,
      "tw": 1162,
      "over": 1163,
      "ough": 1164,
      "our": 1165,
      "ha": 1166,
      "which": 1167,
      "ord": 1168,
      "ra": 1169,
      "ge": 1170,
      "ound": 1171,
      "not": 1172,
      "ine": 1173,
      "rit": 1174,
      "but": 1175,
      "ally": 1176,
      "ass": 1177,
      "gr": 1178,
      "ud": 1179,
      "if": 1180,
      "ip": 1181,
      "act": 1182,
      "iv": 1183,
      "its": 1184,
      "Ch": 1185,
      "ian": 1186,
      "str": 1187,
      "ight": 1188,
      "ary": 1189,
      "her": 1190,
      "du": 1191,
      "fir": 1192,
      "own": 1193,
      "200": 1194,
      "av": 1195,
      "af": 1196,
      "up": 1197,
      "ous": 1198,
      "po": 1199,
      "20": 1200,
      "bl": 1201,
      "ore": 1202,
      "comp": 1203,
      "port": 1204,
      "St": 1205,
      "land": 1206,
      "ew": 1207,
      "der": 1208,
      "ev": 1209,
      "ach": 1210,
      "si": 1211,
      "their": 1212,
      "ep": 1213,
      "ical": 1214,
      "first": 1215,
      "wor": 1216,
      "ould": 1217,
      "age": 1218,
      "ia": 1219,
      "pr": 1220,
      "ll": 1221,
      "bo": 1222,
      "au": 1223,
      "ition": 1224,
      "also": 1225,
      "tim": 1226,
      "low": 1227,
      "ction": 1228,
      "pt": 1229,
      "lo": 1230,
      "form": 1231,
      "ater": 1232,
      "sc": 1233,
      "ign": 1234,
      "has": 1235,
      "ser": 1236,
      "ure": 1237,
      "ke": 1238,
      "att": 1239,
      "int": 1240,
      "ial": 1241,
      "rec": 1242,
      "play": 1243,
      "have": 1244,
      "other": 1245,
      "He": 1246,
      "18": 1247,
      "who": 1248,
      "ok": 1249,
      "ran": 1250,
      "ome": 1251,
      "part": 1252,
      "ence": 1253,
      "gu": 1254,
      "been": 1255,
      "two": 1256,
      "ree": 1257,
      "cont": 1258,
      ".@": 1259,
      "@.@": 1260,
      "pres": 1261,
      "aw": 1262,
      "uring": 1263,
      "off": 1264,
      "dis": 1265,
      "ile": 1266,
      "ory": 1267,
      "this": 1268,
      "sp": 1269,
      "me": 1270,
      "It": 1271,
      "des": 1272,
      "ade": 1273,
      "ult": 1274,
      "ite": 1275,
      "pos": 1276,
      "year": 1277,
      "they": 1278,
      "comm": 1279,
      "201": 1280,
      "cre": 1281,
      "vel": 1282,
      "An": 1283,
      "ell": 1284,
      "Th": 1285,
      "we": 1286,
      "after": 1287,
      "ans": 1288,
      "fin": 1289,
      "ren": 1290,
      "cent": 1291,
      "og": 1292,
      "ved": 1293,
      "br": 1294,
      "incl": 1295,
      "ations": 1296,
      "ue": 1297,
      "able": 1298,
      ",@": 1299,
      "@,@": 1300,
      "ice": 1301,
      "work": 1302,
      "urn": 1303,
      "ever": 1304,
      "ace": 1305,
      "no": 1306,
      "pre": 1307,
      "ric": 1308,
      "ark": 1309,
      "mer": 1310,
      "iz": 1311,
      "time": 1312,
      "Un": 1313,
      "ff": 1314,
      "ens": 1315,
      "co": 1316,
      "spe": 1317,
      "ance": 1318,
      "into": 1319,
      "ions": 1320,
      "more": 1321,
      "ship": 1322,
      "any": 1323,
      "ount": 1324,
      "ces": 1325,
      "most": 1326,
      "amp": 1327,
      "ath": 1328,
      "ced": 1329,
      "inter": 1330,
      "she": 1331,
      "tem": 1332,
      "red": 1333,
      "ason": 1334,
      "would": 1335,
      "Al": 1336,
      "cond": 1337,
      "him": 1338,
      "old": 1339,
      "ph": 1340,
      "ann": 1341,
      "used": 1342,
      "main": 1343,
      "ang": 1344,
      "ited": 1345,
      "cted": 1346,
      "ire": 1347,
      "ings": 1348,
      "ased": 1349,
      "fl": 1350,
      "ie": 1351,
      "fore": 1352,
      "bec": 1353,
      "mon": 1354,
      "min": 1355,
      "includ": 1356,
      "though": 1357,
      "ates": 1358,
      "ict": 1359,
      "Ar": 1360,
      "air": 1361,
      "way": 1362,
      "Au": 1363,
      "row": 1364,
      "vers": 1365,
      "new": 1366,
      "vis": 1367,
      "ail": 1368,
      "rough": 1369,
      "ood": 1370,
      "ft": 1371,
      "ake": 1372,
      "bu": 1373,
      "ob": 1374,
      "ase": 1375,
      "ry": 1376,
      "ick": 1377,
      "ents": 1378,
      "cess": 1379,
      "song": 1380,
      "ild": 1381,
      "only": 1382,
      "when": 1383,
      "arch": 1384,
      "gan": 1385,
      "under": 1386,
      "ubl": 1387,
      "reg": 1388,
      "ble": 1389,
      "them": 1390,
      "iss": 1391,
      "ors": 1392,
      "les": 1393,
      "col": 1394,
      "ose": 1395,
      "En": 1396,
      "during": 1397,
      "day": 1398,
      "ind": 1399,
      "kn": 1400,
      "ret": 1401,
      "game": 1402,
      "son": 1403,
      "ered": 1404,
      "Re": 1405,
      "ilm": 1406,
      "ward": 1407,
      "een": 1408,
      "gen": 1409,
      "ru": 1410,
      "can": 1411,
      "ollow": 1412,
      "outh": 1413,
      "about": 1414,
      "ide": 1415,
      "199": 1416,
      "ts": 1417,
      "season": 1418,
      "than": 1419,
      "nor": 1420,
      "ten": 1421,
      "lar": 1422,
      "oy": 1423,
      "some": 1424,
      "ern": 1425,
      "writ": 1426,
      "sy": 1427,
      "char": 1428,
      "while": 1429,
      "again": 1430,
      "three": 1431,
      "stru": 1432,
      "ational": 1433,
      "ular": 1434,
      "Com": 1435,
      "ty": 1436,
      "On": 1437,
      "so": 1438,
      "ful": 1439,
      "Wh": 1440,
      "tween": 1441,
      "between": 1442,
      "num": 1443,
      "produ": 1444,
      "record": 1445,
      "ron": 1446,
      "through": 1447,
      "ted": 1448,
      "ating": 1449,
      "where": 1450,
      "As": 1451,
      "ied": 1452,
      "later": 1453,
      "10": 1454,
      "rele": 1455,
      "spec": 1456,
      "view": 1457,
      "ames": 1458,
      "film": 1459,
      "ton": 1460,
      "cons": 1461,
      "ele": 1462,
      "ef": 1463,
      "rel": 1464,
      "ck": 1465,
      "Af": 1466,
      "ust": 1467,
      "ished": 1468,
      "set": 1469,
      "made": 1470,
      "Le": 1471,
      "sub": 1472,
      "ury": 1473,
      "my": 1474,
      "then": 1475,
      "New": 1476,
      "led": 1477,
      "do": 1478,
      "aid": 1479,
      "meric": 1480,
      "Americ": 1481,
      "bum": 1482,
      "ock": 1483,
      "ins": 1484,
      "sel": 1485,
      "ma": 1486,
      "appe": 1487,
      "sing": 1488,
      "000": 1489,
      "Jo": 1490,
      "follow": 1491,
      "go": 1492,
      "ters": 1493,
      "high": 1494,
      "second": 1495,
      "such": 1496,
      "rop": 1497,
      "ving": 1498,
      "four": 1499,
      "cap": 1500,
      "ari": 1501,
      "publ": 1502,
      "je": 1503,
      "ics": 1504,
      "16": 1505,
      "med": 1506,
      "well": 1507,
      "iel": 1508,
      "back": 1509,
      "At": 1510,
      "mus": 1511,
      "De": 1512,
      "ily": 1513,
      "This": 1514,
      "ual": 1515,
      "ific": 1516,
      "call": 1517,
      "..": 1518,
      "ven": 1519,
      "album": 1520,
      "before": 1521,
      "mi": 1522,
      "cri": 1523,
      "cur": 1524,
      "fer": 1525,
      "hel": 1526,
      "urch": 1527,
      "ars": 1528,
      "sup": 1529,
      "found": 1530,
      "12": 1531,
      "Eng": 1532,
      "being": 1533,
      "No": 1534,
      "ub": 1535,
      "there": 1536,
      "years": 1537,
      "ative": 1538,
      "sur": 1539,
      "15": 1540,
      "arri": 1541,
      "inn": 1542,
      "owever": 1543,
      "par": 1544,
      "use": 1545,
      "ale": 1546,
      "17": 1547,
      "ane": 1548,
      "add": 1549,
      "many": 1550,
      "known": 1551,
      "side": 1552,
      "long": 1553,
      "like": 1554,
      "number": 1555,
      "loc": 1556,
      "ave": 1557,
      "Nor": 1558,
      "point": 1559,
      "ird": 1560,
      "ities": 1561,
      "ros": 1562,
      "series": 1563,
      "velop": 1564,
      "olog": 1565,
      "ause": 1566,
      "reat": 1567,
      "mber": 1568,
      "ince": 1569,
      "unt": 1570,
      "orn": 1571,
      "cept": 1572,
      "line": 1573,
      "Con": 1574,
      "ines": 1575,
      "cho": 1576,
      "both": 1577,
      "sever": 1578,
      "eng": 1579,
      "hn": 1580,
      "pop": 1581,
      "dire": 1582,
      "ise": 1583,
      "Brit": 1584,
      "epis": 1585,
      "ments": 1586,
      "including": 1587,
      "atch": 1588,
      "down": 1589,
      "igin": 1590,
      "against": 1591,
      "ode": 1592,
      "became": 1593,
      "uary": 1594,
      "oup": 1595,
      "charac": 1596,
      "Sh": 1597,
      "ress": 1598,
      "II": 1599,
      "feat": 1600,
      "ident": 1601,
      "ci": 1602,
      "198": 1603,
      "cer": 1604,
      "ek": 1605,
      "ond": 1606,
      "tain": 1607,
      "ield": 1608,
      "30": 1609,
      "Be": 1610,
      "ped": 1611,
      "descri": 1612,
      "Ro": 1613,
      "appear": 1614,
      "ost": 1615,
      "United": 1616,
      "ised": 1617,
      "cle": 1618,
      "team": 1619,
      "John": 1620,
      "dec": 1621,
      "ures": 1622,
      "hy": 1623,
      "run": 1624,
      "suc": 1625,
      "bed": 1626,
      "develop": 1627,
      "peri": 1628,
      "century": 1629,
      "show": 1630,
      "After": 1631,
      "hist": 1632,
      "lead": 1633,
      "mem": 1634,
      "contin": 1635,
      "uch": 1636,
      "stor": 1637,
      "trans": 1638,
      "origin": 1639,
      "head": 1640,
      "lan": 1641,
      "mill": 1642,
      "pol": 1643,
      "194": 1644,
      "let": 1645,
      "ste": 1646,
      "oper": 1647,
      "west": 1648,
      "ley": 1649,
      "dam": 1650,
      "ball": 1651,
      "ves": 1652,
      "road": 1653,
      "sign": 1654,
      "sm": 1655,
      "several": 1656,
      "diff": 1657,
      "may": 1658,
      "began": 1659,
      "196": 1660,
      "ually": 1661,
      "She": 1662,
      "eral": 1663,
      "197": 1664,
      "Br": 1665,
      "une": 1666,
      "ject": 1667,
      "remain": 1668,
      "cord": 1669,
      "Se": 1670,
      "near": 1671,
      "early": 1672,
      "present": 1673,
      "war": 1674,
      "crit": 1675,
      "met": 1676,
      "nam": 1677,
      "cover": 1678,
      "ended": 1679,
      "az": 1680,
      "cy": 1681,
      "could": 1682,
      "did": 1683,
      "Mar": 1684,
      "ms": 1685,
      "called": 1686,
      "try": 1687,
      "Wor": 1688,
      "episode": 1689,
      "io": 1690,
      "leg": 1691,
      "por": 1692,
      "dep": 1693,
      "ople": 1694,
      "self": 1695,
      "For": 1696,
      "ib": 1697,
      "rece": 1698,
      "along": 1699,
      "aking": 1700,
      "vid": 1701,
      "large": 1702,
      "ash": 1703,
      "Is": 1704,
      "dist": 1705,
      "gg": 1706,
      "val": 1707,
      "13": 1708,
      "mil": 1709,
      "May": 1710,
      "pass": 1711,
      "said": 1712,
      "American": 1713,
      "ink": 1714,
      "ese": 1715,
      "press": 1716,
      "gust": 1717,
      "erson": 1718,
      "success": 1719,
      "tow": 1720,
      "these": 1721,
      "ized": 1722,
      "now": 1723,
      "open": 1724,
      "grap": 1725,
      "14": 1726,
      "ca": 1727,
      "tri": 1728,
      "Ger": 1729,
      "stem": 1730,
      "fam": 1731,
      "rist": 1732,
      "British": 1733,
      "50": 1734,
      "music": 1735,
      "until": 1736,
      "city": 1737,
      "start": 1738,
      "overn": 1739,
      "ross": 1740,
      "comple": 1741,
      "released": 1742,
      "xt": 1743,
      "Gr": 1744,
      "less": 1745,
      "itt": 1746,
      "same": 1747,
      "thern": 1748,
      "ived": 1749,
      "vol": 1750,
      "ists": 1751,
      "ah": 1752,
      "sim": 1753,
      "jor": 1754,
      "return": 1755,
      "plac": 1756,
      "ious": 1757,
      "km": 1758,
      "They": 1759,
      "state": 1760,
      "ank": 1761,
      "area": 1762,
      "design": 1763,
      "read": 1764,
      "oci": 1765,
      "million": 1766,
      "ouse": 1767,
      "fect": 1768,
      "formed": 1769,
      "men": 1770,
      "because": 1771,
      "oot": 1772,
      "ower": 1773,
      "each": 1774,
      "War": 1775,
      "offic": 1776,
      "Car": 1777,
      "che": 1778,
      "enn": 1779,
      "August": 1780,
      "la": 1781,
      "coun": 1782,
      "vide": 1783,
      "come": 1784,
      "Sep": 1785,
      "serv": 1786,
      "dr": 1787,
      "life": 1788,
      "east": 1789,
      "people": 1790,
      "chool": 1791,
      "ple": 1792,
      "car": 1793,
      "national": 1794,
      "book": 1795,
      "ris": 1796,
      "bod": 1797,
      "rote": 1798,
      "stral": 1799,
      "light": 1800,
      "six": 1801,
      "Eu": 1802,
      "support": 1803,
      "field": 1804,
      "Ju": 1805,
      "Col": 1806,
      "ather": 1807,
      "group": 1808,
      "iver": 1809,
      "around": 1810,
      "top": 1811,
      "ured": 1812,
      "Fe": 1813,
      "ision": 1814,
      "However": 1815,
      "Pl": 1816,
      "vent": 1817,
      "dom": 1818,
      "sol": 1819,
      "mark": 1820,
      "prote": 1821,
      "north": 1822,
      "consid": 1823,
      "character": 1824,
      "attack": 1825,
      "ales": 1826,
      "tember": 1827,
      "September": 1828,
      "will": 1829,
      "continu": 1830,
      "small": 1831,
      "get": 1832,
      "ext": 1833,
      "Bl": 1834,
      "position": 1835,
      "rest": 1836,
      "following": 1837,
      "ground": 1838,
      "World": 1839,
      "oth": 1840,
      "US": 1841,
      "fun": 1842,
      "stud": 1843,
      "contro": 1844,
      "Austral": 1845,
      "very": 1846,
      "ina": 1847,
      "lish": 1848,
      "requ": 1849,
      "Her": 1850,
      "ivers": 1851,
      "ural": 1852,
      "five": 1853,
      "stand": 1854,
      "ional": 1855,
      "result": 1856,
      "aim": 1857,
      "tit": 1858,
      "bers": 1859,
      "atter": 1860,
      "track": 1861,
      "gy": 1862,
      "ague": 1863,
      "ctor": 1864,
      "miss": 1865,
      "pon": 1866,
      "def": 1867,
      "what": 1868,
      "name": 1869,
      "cording": 1870,
      "11": 1871,
      "bre": 1872,
      "aged": 1873,
      "North": 1874,
      "Gu": 1875,
      "Me": 1876,
      "Fran": 1877,
      "report": 1878,
      "gun": 1879,
      "ired": 1880,
      "ism": 1881,
      "Wil": 1882,
      "cr": 1883,
      "cut": 1884,
      "ony": 1885,
      "prom": 1886,
      "played": 1887,
      "June": 1888,
      "allow": 1889,
      "cour": 1890,
      "tal": 1891,
      "week": 1892,
      "govern": 1893,
      "late": 1894,
      "ask": 1895,
      "ages": 1896,
      "oman": 1897,
      "0s": 1898,
      "ham": 1899,
      "Oc": 1900,
      "care": 1901,
      "ys": 1902,
      "vision": 1903,
      "cast": 1904,
      "Man": 1905,
      "25": 1906,
      "Jan": 1907,
      "dra": 1908,
      "final": 1909,
      "public": 1910,
      "ately": 1911,
      "since": 1912,
      "States": 1913,
      "Ac": 1914,
      "Cl": 1915,
      "ime": 1916,
      "species": 1917,
      "major": 1918,
      "ined": 1919,
      "reach": 1920,
      "count": 1921,
      "ling": 1922,
      "ained": 1923,
      "south": 1924,
      "received": 1925,
      "Mon": 1926,
      "South": 1927,
      "child": 1928,
      "app": 1929,
      "even": 1930,
      "build": 1931,
      "list": 1932,
      "last": 1933,
      "took": 1934,
      "appro": 1935,
      "class": 1936,
      "partic": 1937,
      "batt": 1938,
      "won": 1939,
      "ility": 1940,
      "Christ": 1941,
      "just": 1942,
      "star": 1943,
      "system": 1944,
      "King": 1945,
      "gre": 1946,
      "organ": 1947,
      "ork": 1948,
      "wards": 1949,
      "oss": 1950,
      "vari": 1951,
      "ilt": 1952,
      "described": 1953,
      "Par": 1954,
      "inc": 1955,
      "ains": 1956,
      "world": 1957,
      "named": 1958,
      "town": 1959,
      "place": 1960,
      "giv": 1961,
      "ards": 1962,
      "tober": 1963,
      "October": 1964,
      "band": 1965,
      "moved": 1966,
      "All": 1967,
      "pri": 1968,
      "ery": 1969,
      "constru": 1970,
      "liam": 1971,
      "ute": 1972,
      "water": 1973,
      "incre": 1974,
      "ude": 1975,
      "vious": 1976,
      "ropical": 1977,
      "aur": 1978,
      "ants": 1979,
      "ets": 1980,
      "kill": 1981,
      "sequ": 1982,
      "wrote": 1983,
      "York": 1984,
      "July": 1985,
      "camp": 1986,
      "hand": 1987,
      "Can": 1988,
      "ix": 1989,
      "due": 1990,
      "West": 1991,
      "ats": 1992,
      "ored": 1993,
      "ae": 1994,
      "rown": 1995,
      "ium": 1996,
      "During": 1997,
      "much": 1998,
      "fur": 1999,
      "power": 2000,
      "single": 2001,
      "Apr": 2002,
      "April": 2003,
      "ently": 2004,
      "ons": 2005,
      "ature": 2006,
      "tempt": 2007,
      "hum": 2008,
      "ically": 2009,
      "...": 2010,
      "differ": 2011,
      "death": 2012,
      "Euro": 2013,
      "ital": 2014,
      "order": 2015,
      "hal": 2016,
      "ove": 2017,
      "Mc": 2018,
      "tra": 2019,
      "gener": 2020,
      "German": 2021,
      "another": 2022,
      "195": 2023,
      "ships": 2024,
      "short": 2025,
      "included": 2026,
      "Sc": 2027,
      "arm": 2028,
      "ement": 2029,
      "event": 2030,
      "Ste": 2031,
      "person": 2032,
      "right": 2033,
      "January": 2034,
      "estab": 2035,
      "akes": 2036,
      "within": 2037,
      "England": 2038,
      "pect": 2039,
      "ians": 2040,
      "sent": 2041,
      "left": 2042,
      "based": 2043,
      "cas": 2044,
      "built": 2045,
      "fall": 2046,
      "beli": 2047,
      "claim": 2048,
      "although": 2049,
      "attempt": 2050,
      "ified": 2051,
      "family": 2052,
      "Ge": 2053,
      "March": 2054,
      "home": 2055,
      "games": 2056,
      "third": 2057,
      "ense": 2058,
      "que": 2059,
      "jo": 2060,
      "turn": 2061,
      "best": 2062,
      "dest": 2063,
      "Nove": 2064,
      "school": 2065,
      "previous": 2066,
      "ting": 2067,
      "roy": 2068,
      "ax": 2069,
      "story": 2070,
      "ulation": 2071,
      "193": 2072,
      "expl": 2073,
      "November": 2074,
      "review": 2075,
      "ilar": 2076,
      "And": 2077,
      "ially": 2078,
      "issu": 2079,
      "period": 2080,
      "His": 2081,
      "By": 2082,
      "ops": 2083,
      "flu": 2084,
      "government": 2085,
      "Europe": 2086,
      "ster": 2087,
      "Pr": 2088,
      "Sp": 2089,
      "adv": 2090,
      "chan": 2091,
      "mar": 2092,
      "ls": 2093,
      "Dece": 2094,
      "make": 2095,
      "Ad": 2096,
      "mb": 2097,
      "using": 2098,
      "December": 2099,
      "those": 2100,
      "Pro": 2101,
      "We": 2102,
      "storm": 2103,
      "urric": 2104,
      "king": 2105,
      "ral": 2106,
      "ush": 2107,
      "avy": 2108,
      "There": 2109,
      "ref": 2110,
      "ched": 2111,
      "ness": 2112,
      "ston": 2113,
      "City": 2114,
      "ai": 2115,
      "real": 2116,
      "original": 2117,
      "ought": 2118,
      "company": 2119,
      "ler": 2120,
      "bro": 2121,
      "command": 2122,
      "fact": 2123,
      "match": 2124,
      "ences": 2125,
      "fac": 2126,
      "ety": 2127,
      "month": 2128,
      "When": 2129,
      "Or": 2130,
      "itary": 2131,
      "auth": 2132,
      "24": 2133,
      "stit": 2134,
      "trad": 2135,
      "Li": 2136,
      "gram": 2137,
      "aff": 2138,
      "stri": 2139,
      "National": 2140,
      "oung": 2141,
      "Bo": 2142,
      "Ph": 2143,
      "2009": 2144,
      "sk": 2145,
      "club": 2146,
      "video": 2147,
      "ze": 2148,
      "26": 2149,
      "2008": 2150,
      "raft": 2151,
      "2010": 2152,
      "rench": 2153,
      "colle": 2154,
      "21": 2155,
      "church": 2156,
      "tract": 2157,
      "River": 2158,
      "thing": 2159,
      "ides": 2160,
      "ivision": 2161,
      "28": 2162,
      "role": 2163,
      "lim": 2164,
      "mag": 2165,
      "still": 2166,
      "23": 2167,
      "arn": 2168,
      "forman": 2169,
      "move": 2170,
      "ends": 2171,
      "iversity": 2172,
      "player": 2173,
      "possi": 2174,
      "Co": 2175,
      "mp": 2176,
      "ensive": 2177,
      "mid": 2178,
      "local": 2179,
      "Gen": 2180,
      "Pe": 2181,
      "ged": 2182,
      "Indi": 2183,
      "addition": 2184,
      "Dy": 2185,
      "100": 2186,
      "came": 2187,
      "often": 2188,
      "version": 2189,
      "put": 2190,
      "vo": 2191,
      "und": 2192,
      "history": 2193,
      "idge": 2194,
      "aken": 2195,
      "site": 2196,
      "former": 2197,
      "bert": 2198,
      "say": 2199,
      "quar": 2200,
      "half": 2201,
      "draw": 2202,
      "fel": 2203,
      "urricane": 2204,
      "sou": 2205,
      "ggest": 2206,
      "init": 2207,
      "lor": 2208,
      "den": 2209,
      "ending": 2210,
      "continued": 2211,
      "house": 2212,
      "round": 2213,
      "ali": 2214,
      "ution": 2215,
      "body": 2216,
      "considered": 2217,
      "Inter": 2218,
      "inning": 2219,
      "suggest": 2220,
      "next": 2221,
      "2007": 2222,
      "effect": 2223,
      "One": 2224,
      "mand": 2225,
      "ared": 2226,
      "ribut": 2227,
      "refer": 2228,
      "fri": 2229,
      "similar": 2230,
      "placed": 2231,
      "recorded": 2232,
      "English": 2233,
      "published": 2234,
      "French": 2235,
      "import": 2236,
      "few": 2237,
      "career": 2238,
      "wind": 2239,
      "held": 2240,
      "beg": 2241,
      "Batt": 2242,
      "Per": 2243,
      "aster": 2244,
      "Te": 2245,
      "ator": 2246,
      "performan": 2247,
      "take": 2248,
      "chang": 2249,
      "production": 2250,
      "Ear": 2251,
      "ico": 2252,
      "imes": 2253,
      "posed": 2254,
      "graph": 2255,
      "different": 2256,
      "sty": 2257,
      "aining": 2258,
      "commun": 2259,
      "ps": 2260,
      "fort": 2261,
      "bar": 2262,
      "craft": 2263,
      "With": 2264,
      "Bar": 2265,
      "you": 2266,
      "oute": 2267,
      "without": 2268,
      "ampion": 2269,
      "songs": 2270,
      "fr": 2271,
      "written": 2272,
      "27": 2273,
      "action": 2274,
      "polit": 2275,
      "Mus": 2276,
      "force": 2277,
      "eved": 2278,
      "strong": 2279,
      "among": 2280,
      "struct": 2281,
      "wood": 2282,
      "level": 2283,
      "22": 2284,
      "Ser": 2285,
      "gl": 2286,
      "ford": 2287,
      "State": 2288,
      "ik": 2289,
      "seven": 2290,
      "iment": 2291,
      "Tr": 2292,
      "days": 2293,
      "every": 2294,
      "stead": 2295,
      "white": 2296,
      "Char": 2297,
      "ology": 2298,
      "fire": 2299,
      "win": 2300,
      "iter": 2301,
      "itar": 2302,
      "Division": 2303,
      "2011": 2304,
      "larg": 2305,
      "release": 2306,
      "bird": 2307,
      "foot": 2308,
      "tropical": 2309,
      "further": 2310,
      "find": 2311,
      "become": 2312,
      "2006": 2313,
      "According": 2314,
      "Church": 2315,
      "Although": 2316,
      "Canad": 2317,
      "however": 2318,
      "test": 2319,
      "author": 2320,
      "ering": 2321,
      "prof": 2322,
      "cor": 2323,
      "pite": 2324,
      "augh": 2325,
      "respon": 2326,
      "particular": 2327,
      "how": 2328,
      "ox": 2329,
      "wide": 2330,
      "Port": 2331,
      "title": 2332,
      "fan": 2333,
      "tele": 2334,
      "Tw": 2335,
      "hold": 2336,
      "ning": 2337,
      "military": 2338,
      "Mo": 2339,
      "Roman": 2340,
      "members": 2341,
      "League": 2342,
      "popular": 2343,
      "direct": 2344,
      "cial": 2345,
      "cult": 2346,
      "sit": 2347,
      "ives": 2348,
      "ctions": 2349,
      "itch": 2350,
      "omin": 2351,
      "histor": 2352,
      "ittle": 2353,
      "udi": 2354,
      "ided": 2355,
      "ices": 2356,
      "times": 2357,
      "Song": 2358,
      "pen": 2359,
      "bruary": 2360,
      "February": 2361,
      "clear": 2362,
      "Pol": 2363,
      "uc": 2364,
      "indu": 2365,
      "moder": 2366,
      "lost": 2367,
      "scen": 2368,
      "bur": 2369,
      "Geor": 2370,
      "gave": 2371,
      "na": 2372,
      "produced": 2373,
      "successful": 2374,
      "reported": 2375,
      "provid": 2376,
      "Dylan": 2377,
      "Miss": 2378,
      "divid": 2379,
      "served": 2380,
      "Park": 2381,
      "post": 2382,
      "itions": 2383,
      "ama": 2384,
      "night": 2385,
      "total": 2386,
      "Des": 2387,
      "flo": 2388,
      "bas": 2389,
      "search": 2390,
      "sure": 2391,
      "away": 2392,
      "2012": 2393,
      "Old": 2394,
      "ively": 2395,
      "common": 2396,
      "rad": 2397,
      "ney": 2398,
      "Comp": 2399,
      "net": 2400,
      "ister": 2401,
      "decl": 2402,
      "children": 2403,
      "given": 2404,
      "chn": 2405,
      "apan": 2406,
      "Ha": 2407,
      "seen": 2408,
      "forces": 2409,
      "Sim": 2410,
      "fron": 2411,
      "atic": 2412,
      "tour": 2413,
      "ception": 2414,
      "see": 2415,
      "face": 2416,
      "ges": 2417,
      "vict": 2418,
      "stated": 2419,
      "els": 2420,
      "having": 2421,
      "close": 2422,
      "critic": 2423,
      "Japan": 2424,
      "omen": 2425,
      "ably": 2426,
      "ailed": 2427,
      "tro": 2428,
      "stre": 2429,
      "plan": 2430,
      "exp": 2431,
      "include": 2432,
      "29": 2433,
      "To": 2434,
      "invol": 2435,
      "represent": 2436,
      "Count": 2437,
      "gar": 2438,
      "making": 2439,
      "influ": 2440,
      "capt": 2441,
      "Ne": 2442,
      "great": 2443,
      "want": 2444,
      "alion": 2445,
      "eder": 2446,
      "Ma": 2447,
      "Afric": 2448,
      "country": 2449,
      "young": 2450,
      "compet": 2451,
      "ways": 2452,
      "ploy": 2453,
      "cus": 2454,
      "ier": 2455,
      "tell": 2456,
      "manag": 2457,
      "Cent": 2458,
      "look": 2459,
      "signific": 2460,
      "comb": 2461,
      "program": 2462,
      "General": 2463,
      "Har": 2464,
      "ances": 2465,
      "antic": 2466,
      "lands": 2467,
      "novel": 2468,
      "equ": 2469,
      "ours": 2470,
      "2013": 2471,
      "pur": 2472,
      "intro": 2473,
      "control": 2474,
      "40": 2475,
      "fem": 2476,
      "mm": 2477,
      "occur": 2478,
      "scri": 2479,
      "Air": 2480,
      "went": 2481,
      "word": 2482,
      "never": 2483,
      "rent": 2484,
      "Vi": 2485,
      "rap": 2486,
      "omet": 2487,
      "project": 2488,
      "compos": 2489,
      "depend": 2490,
      "BC": 2491,
      "construction": 2492,
      "lished": 2493,
      "should": 2494,
      "board": 2495,
      "change": 2496,
      "raised": 2497,
      "activ": 2498,
      "While": 2499,
      "mix": 2500,
      "Dav": 2501,
      "law": 2502,
      "writing": 2503,
      "Scot": 2504,
      "soci": 2505,
      "xim": 2506,
      "returned": 2507,
      "Su": 2508,
      "father": 2509,
      "ope": 2510,
      "works": 2511,
      "University": 2512,
      "developed": 2513,
      "bor": 2514,
      "chart": 2515,
      "aren": 2516,
      "established": 2517,
      "ks": 2518,
      "sound": 2519,
      "190": 2520,
      "key": 2521,
      "Ed": 2522,
      "dri": 2523,
      "god": 2524,
      "ither": 2525,
      "These": 2526,
      "announ": 2527,
      "America": 2528,
      "room": 2529,
      "population": 2530,
      "Ire": 2531,
      "ner": 2532,
      "ades": 2533,
      "introdu": 2534,
      "Jack": 2535,
      "mit": 2536,
      "coming": 2537,
      "amb": 2538,
      "reached": 2539,
      "Cor": 2540,
      "Ke": 2541,
      "ient": 2542,
      "earli": 2543,
      "range": 2544,
      "noted": 2545,
      "Ireland": 2546,
      "agre": 2547,
      "Black": 2548,
      "igade": 2549,
      "thought": 2550,
      "ument": 2551,
      "building": 2552,
      "across": 2553,
      "typ": 2554,
      "throughout": 2555,
      "ondon": 2556,
      "Mich": 2557,
      "aint": 2558,
      "cell": 2559,
      "human": 2560,
      "London": 2561,
      "hip": 2562,
      "sum": 2563,
      "Ex": 2564,
      "East": 2565,
      "teen": 2566,
      "William": 2567,
      "felt": 2568,
      "good": 2569,
      "ones": 2570,
      "acy": 2571,
      "full": 2572,
      "burn": 2573,
      "ara": 2574,
      "himself": 2575,
      "Reg": 2576,
      "development": 2577,
      "Ber": 2578,
      "black": 2579,
      "medi": 2580,
      "ological": 2581,
      "Wal": 2582,
      "iness": 2583,
      "nd": 2584,
      "performed": 2585,
      "fle": 2586,
      "complete": 2587,
      "suff": 2588,
      "sett": 2589,
      "Australia": 2590,
      "important": 2591,
      "significant": 2592,
      "eight": 2593,
      "lay": 2594,
      "60": 2595,
      "covered": 2596,
      "ivil": 2597,
      "Atl": 2598,
      "miles": 2599,
      "Mag": 2600,
      "ior": 2601,
      "ov": 2602,
      "ung": 2603,
      "live": 2604,
      "Rich": 2605,
      "Sy": 2606,
      "bus": 2607,
      "destroy": 2608,
      "modern": 2609,
      "nu": 2610,
      "ana": 2611,
      "itive": 2612,
      "interest": 2613,
      "television": 2614,
      "Pal": 2615,
      "Roy": 2616,
      "ring": 2617,
      "various": 2618,
      "style": 2619,
      "areas": 2620,
      "prim": 2621,
      "front": 2622,
      "appeared": 2623,
      "rew": 2624,
      "died": 2625,
      "aign": 2626,
      "cing": 2627,
      "cil": 2628,
      "need": 2629,
      "reek": 2630,
      "ogn": 2631,
      "relation": 2632,
      "TV": 2633,
      "ago": 2634,
      "others": 2635,
      "marri": 2636,
      "rock": 2637,
      "events": 2638,
      "does": 2639,
      "ots": 2640,
      "abor": 2641,
      "Road": 2642,
      "aver": 2643,
      "da": 2644,
      "mun": 2645,
      "too": 2646,
      "sex": 2647,
      "techn": 2648,
      "appoint": 2649,
      "started": 2650,
      "idence": 2651,
      "players": 2652,
      "mission": 2653,
      "High": 2654,
      "James": 2655,
      "fig": 2656,
      "omb": 2657,
      "gether": 2658,
      "Po": 2659,
      "ison": 2660,
      "icult": 2661,
      "feet": 2662,
      "reen": 2663,
      "stant": 2664,
      "experi": 2665,
      "ino": 2666,
      "iting": 2667,
      "poem": 2668,
      "ization": 2669,
      "Mont": 2670,
      "Mount": 2671,
      "ible": 2672,
      "nal": 2673,
      "vill": 2674,
      "ination": 2675,
      "performance": 2676,
      "County": 2677,
      "bes": 2678,
      "sl": 2679,
      "caused": 2680,
      "ising": 2681,
      "alth": 2682,
      "pred": 2683,
      "formation": 2684,
      "189": 2685,
      "Ab": 2686,
      "You": 2687,
      "El": 2688,
      "Pa": 2689,
      "ked": 2690,
      "quad": 2691,
      "ife": 2692,
      "mount": 2693,
      "grad": 2694,
      "Ham": 2695,
      "born": 2696,
      "osaur": 2697,
      "coast": 2698,
      "hind": 2699,
      "ality": 2700,
      "created": 2701,
      "Phil": 2702,
      "script": 2703,
      "2004": 2704,
      "ample": 2705,
      "relig": 2706,
      "rul": 2707,
      "entire": 2708,
      "ull": 2709,
      "ability": 2710,
      "2005": 2711,
      "inv": 2712,
      "era": 2713,
      "vert": 2714,
      "political": 2715,
      "So": 2716,
      "far": 2717,
      "van": 2718,
      "mother": 2719,
      "characters": 2720,
      "cir": 2721,
      "theast": 2722,
      "aly": 2723,
      "Sci": 2724,
      "ioned": 2725,
      "lect": 2726,
      "Som": 2727,
      "taken": 2728,
      "fight": 2729,
      "sw": 2730,
      "stone": 2731,
      "battle": 2732,
      "fav": 2733,
      "once": 2734,
      "exist": 2735,
      "Town": 2736,
      "cop": 2737,
      "asing": 2738,
      "uses": 2739,
      "arded": 2740,
      "Care": 2741,
      "Hist": 2742,
      "yard": 2743,
      "anim": 2744,
      "conne": 2745,
      "located": 2746,
      "killed": 2747,
      "ael": 2748,
      "lines": 2749,
      "ues": 2750,
      "ille": 2751,
      "remained": 2752,
      "grow": 2753,
      "uck": 2754,
      "tradition": 2755,
      "rain": 2756,
      "sess": 2757,
      "bet": 2758,
      "debut": 2759,
      "know": 2760,
      "completed": 2761,
      "Music": 2762,
      "Feder": 2763,
      "scored": 2764,
      "ublic": 2765,
      "difficult": 2766,
      "guns": 2767,
      "Kingdom": 2768,
      "har": 2769,
      "tar": 2770,
      "campaign": 2771,
      "announced": 2772,
      "Cup": 2773,
      "host": 2774,
      "ping": 2775,
      "stars": 2776,
      "ape": 2777,
      "meet": 2778,
      "Grand": 2779,
      "Australian": 2780,
      "stat": 2781,
      "peak": 2782,
      "region": 2783,
      "hab": 2784,
      "names": 2785,
      "ories": 2786,
      "bel": 2787,
      "Ang": 2788,
      "Sun": 2789,
      "process": 2790,
      "goal": 2791,
      "Company": 2792,
      "little": 2793,
      "instead": 2794,
      "added": 2795,
      "break": 2796,
      "enced": 2797,
      "member": 2798,
      "elect": 2799,
      "possible": 2800,
      "gin": 2801,
      "studi": 2802,
      "vest": 2803,
      "regular": 2804,
      "pression": 2805,
      "voc": 2806,
      "wife": 2807,
      "island": 2808,
      "least": 2809,
      "followed": 2810,
      "orse": 2811,
      "pair": 2812,
      "together": 2813,
      "aper": 2814,
      "cause": 2815,
      "tre": 2816,
      "originally": 2817,
      "months": 2818,
      "southern": 2819,
      "mot": 2820,
      "mass": 2821,
      "non": 2822,
      "ned": 2823,
      "comment": 2824,
      "Army": 2825,
      "Bra": 2826,
      "Some": 2827,
      "ique": 2828,
      "ky": 2829,
      "loss": 2830,
      "wall": 2831,
      "resident": 2832,
      "associ": 2833,
      "study": 2834,
      "David": 2835,
      "Bill": 2836,
      "fif": 2837,
      "ota": 2838,
      "playing": 2839,
      "cru": 2840,
      "hurricane": 2841,
      "sport": 2842,
      "women": 2843,
      "ened": 2844,
      "France": 2845,
      "Ev": 2846,
      "broad": 2847,
      "got": 2848,
      "reli": 2849,
      "recogn": 2850,
      "consist": 2851,
      "opened": 2852,
      "35": 2853,
      "termin": 2854,
      "eastern": 2855,
      "carri": 2856,
      "ata": 2857,
      "critics": 2858,
      "Champion": 2859,
      "2003": 2860,
      "base": 2861,
      "osp": 2862,
      "Robert": 2863,
      "eventually": 2864,
      "profess": 2865,
      "Love": 2866,
      "ey": 2867,
      "ho": 2868,
      "odes": 2869,
      "estim": 2870,
      "features": 2871,
      "cert": 2872,
      "God": 2873,
      "Min": 2874,
      "don": 2875,
      "mph": 2876,
      "2015": 2877,
      "cret": 2878,
      "SA": 2879,
      "fourth": 2880,
      "Du": 2881,
      "Val": 2882,
      "route": 2883,
      "decided": 2884,
      "birds": 2885,
      "vir": 2886,
      "forced": 2887,
      "clos": 2888,
      "aving": 2889,
      "tempor": 2890,
      "Two": 2891,
      "saw": 2892,
      "accept": 2893,
      "commer": 2894,
      "points": 2895,
      "graphy": 2896,
      "inal": 2897,
      "illa": 2898,
      "lack": 2899,
      "damage": 2900,
      "sold": 2901,
      "ica": 2902,
      "icated": 2903,
      "heavy": 2904,
      "impro": 2905,
      "leading": 2906,
      "azine": 2907,
      "ded": 2908,
      "either": 2909,
      "pat": 2910,
      "current": 2911,
      "Battalion": 2912,
      "Hen": 2913,
      "Mi": 2914,
      "Sw": 2915,
      "separ": 2916,
      "proble": 2917,
      "forms": 2918,
      "rick": 2919,
      "writer": 2920,
      "cup": 2921,
      "nar": 2922,
      "pie": 2923,
      "behind": 2924,
      "finished": 2925,
      "friend": 2926,
      "31": 2927,
      "dou": 2928,
      "ug": 2929,
      "individ": 2930,
      "believed": 2931,
      "Carey": 2932,
      "Mad": 2933,
      "Part": 2934,
      "dle": 2935,
      "special": 2936,
      "liament": 2937,
      "claimed": 2938,
      "vier": 2939,
      "condom": 2940,
      "Mor": 2941,
      "Red": 2942,
      "mater": 2943,
      "ida": 2944,
      "respect": 2945,
      "appearance": 2946,
      "Royal": 2947,
      "igned": 2948,
      "Play": 2949,
      "2nd": 2950,
      "Am": 2951,
      "Med": 2952,
      "sen": 2953,
      "sour": 2954,
      "lled": 2955,
      "fantry": 2956,
      "80": 2957,
      "Mex": 2958,
      "employ": 2959,
      "example": 2960,
      "Stre": 2961,
      "central": 2962,
      "langu": 2963,
      "service": 2964,
      "Day": 2965,
      "yards": 2966,
      "almost": 2967,
      "ington": 2968,
      "aves": 2969,
      "White": 2970,
      "directed": 2971,
      "western": 2972,
      "70": 2973,
      "Game": 2974,
      "case": 2975,
      "lin": 2976,
      "compl": 2977,
      "compan": 2978,
      "via": 2979,
      "European": 2980,
      "ators": 2981,
      "tel": 2982,
      "anti": 2983,
      "mean": 2984,
      "generally": 2985,
      "Federer": 2986,
      "cul": 2987,
      "hon": 2988,
      "towards": 2989,
      "elements": 2990,
      "Act": 2991,
      "heel": 2992,
      "river": 2993,
      "general": 2994,
      "Oli": 2995,
      "cross": 2996,
      "tail": 2997,
      "urb": 2998,
      "term": 2999,
      "concl": 3000,
      "assist": 3001,
      "stry": 3002,
      "lower": 3003,
      "brought": 3004,
      "Brigade": 3005,
      "ready": 3006,
      "weeks": 3007,
      "Wales": 3008,
      "fly": 3009,
      "stage": 3010,
      "ceed": 3011,
      "upon": 3012,
      "spir": 3013,
      "help": 3014,
      "International": 3015,
      "Flor": 3016,
      "San": 3017,
      "inch": 3018,
      "highway": 3019,
      "laun": 3020,
      "Rep": 3021,
      "free": 3022,
      "ply": 3023,
      "defe": 3024,
      "oted": 3025,
      "director": 3026,
      "featured": 3027,
      "Viet": 3028,
      "Ir": 3029,
      "Other": 3030,
      "date": 3031,
      "lam": 3032,
      "aircraft": 3033,
      "survi": 3034,
      "Cr": 3035,
      "nine": 3036,
      "My": 3037,
      "ration": 3038,
      "research": 3039,
      "contract": 3040,
      "ordan": 3041,
      "uk": 3042,
      "rail": 3043,
      "approach": 3044,
      "Str": 3045,
      "sts": 3046,
      "ids": 3047,
      "mode": 3048,
      "ocial": 3049,
      "meas": 3050,
      "iction": 3051,
      "45": 3052,
      "Ap": 3053,
      "gress": 3054,
      "condu": 3055,
      "parts": 3056,
      "George": 3057,
      "provided": 3058,
      "Follow": 3059,
      "Gal": 3060,
      "reve": 3061,
      "redu": 3062,
      "flood": 3063,
      "Jordan": 3064,
      "sea": 3065,
      "allowed": 3066,
      "AA": 3067,
      "From": 3068,
      "Rock": 3069,
      "nat": 3070,
      "istic": 3071,
      "audi": 3072,
      "Ho": 3073,
      "Jew": 3074,
      "sem": 3075,
      "section": 3076,
      "Thom": 3077,
      "cially": 3078,
      "certain": 3079,
      "earlier": 3080,
      "Paul": 3081,
      "House": 3082,
      "atin": 3083,
      "coll": 3084,
      "useum": 3085,
      "Mac": 3086,
      "rid": 3087,
      "reason": 3088,
      "ouri": 3089,
      "rather": 3090,
      "2014": 3091,
      "worked": 3092,
      "subsequ": 3093,
      "female": 3094,
      "Atlantic": 3095,
      "Cap": 3096,
      "Fir": 3097,
      "dy": 3098,
      "ishing": 3099,
      "pract": 3100,
      "love": 3101,
      "opening": 3102,
      "Christian": 3103,
      "Mary": 3104,
      "crew": 3105,
      "working": 3106,
      "III": 3107,
      "operations": 3108,
      "largest": 3109,
      "victory": 3110,
      "Following": 3111,
      "38": 3112,
      "Bay": 3113,
      "rang": 3114,
      "Command": 3115,
      "Island": 3116,
      "Hero": 3117,
      "particularly": 3118,
      "wanted": 3119,
      "manager": 3120,
      "Pri": 3121,
      "ding": 3122,
      "foc": 3123,
      "aries": 3124,
      "19th": 3125,
      "standing": 3126,
      "travel": 3127,
      "joined": 3128,
      "troops": 3129,
      "Don": 3130,
      "pers": 3131,
      "tee": 3132,
      "northern": 3133,
      "court": 3134,
      "Ver": 3135,
      "ault": 3136,
      "leng": 3137,
      "thod": 3138,
      "500": 3139,
      "stren": 3140,
      "hest": 3141,
      "evidence": 3142,
      "gra": 3143,
      "quest": 3144,
      "Florida": 3145,
      "conom": 3146,
      "emy": 3147,
      "engine": 3148,
      "counter": 3149,
      "Street": 3150,
      "past": 3151,
      "ita": 3152,
      "super": 3153,
      "outside": 3154,
      "185": 3155,
      "saying": 3156,
      "Most": 3157,
      "mach": 3158,
      "inj": 3159,
      "account": 3160,
      "ival": 3161,
      "cycl": 3162,
      "Mark": 3163,
      "Ze": 3164,
      "mal": 3165,
      "erous": 3166,
      "issue": 3167,
      "Tech": 3168,
      "hours": 3169,
      "ties": 3170,
      "ential": 3171,
      "whom": 3172,
      "streng": 3173,
      "ald": 3174,
      "sell": 3175,
      "avail": 3176,
      "minist": 3177,
      "Missouri": 3178,
      "FA": 3179,
      "tor": 3180,
      "oney": 3181,
      "2001": 3182,
      "188": 3183,
      "length": 3184,
      "drop": 3185,
      "gold": 3186,
      "hous": 3187,
      "stay": 3188,
      "deal": 3189,
      "territ": 3190,
      "aps": 3191,
      "plann": 3192,
      "quarter": 3193,
      "ming": 3194,
      "think": 3195,
      "station": 3196,
      "prob": 3197,
      "viol": 3198,
      "Qu": 3199,
      "Tor": 3200,
      "ken": 3201,
      "nomin": 3202,
      "acc": 3203,
      "ament": 3204,
      "type": 3205,
      "alter": 3206,
      "argu": 3207,
      "learn": 3208,
      "seem": 3209,
      "quick": 3210,
      "poor": 3211,
      "pool": 3212,
      "Bel": 3213,
      "Vir": 3214,
      "tic": 3215,
      "soon": 3216,
      "designed": 3217,
      "Cam": 3218,
      "Dep": 3219,
      "Gl": 3220,
      "bill": 3221,
      "dol": 3222,
      "hib": 3223,
      "amount": 3224,
      "ify": 3225,
      "ranch": 3226,
      "football": 3227,
      "Cro": 3228,
      "Coun": 3229,
      "pan": 3230,
      "praised": 3231,
      "aland": 3232,
      "Best": 3233,
      "ecut": 3234,
      "mel": 3235,
      "mult": 3236,
      "pain": 3237,
      "spo": 3238,
      "deli": 3239,
      "flight": 3240,
      "goals": 3241,
      "remains": 3242,
      "First": 3243,
      "phas": 3244,
      "uel": 3245,
      "Michael": 3246,
      "36": 3247,
      "Bus": 3248,
      "race": 3249,
      "ples": 3250,
      "pressed": 3251,
      "official": 3252,
      "winds": 3253,
      "appointed": 3254,
      "Dr": 3255,
      "Hel": 3256,
      "bi": 3257,
      "civil": 3258,
      "above": 3259,
      "discus": 3260,
      "increased": 3261,
      "Egy": 3262,
      "aut": 3263,
      "fre": 3264,
      "hom": 3265,
      "ials": 3266,
      "igg": 3267,
      "previously": 3268,
      "Hill": 3269,
      "invest": 3270,
      "replaced": 3271,
      "tolo": 3272,
      "units": 3273,
      "90": 3274,
      "ds": 3275,
      "taking": 3276,
      "stop": 3277,
      "passed": 3278,
      "ributed": 3279,
      "Richard": 3280,
      "75": 3281,
      "Que": 3282,
      "here": 3283,
      "must": 3284,
      "186": 3285,
      "interview": 3286,
      "maintain": 3287,
      "signed": 3288,
      "business": 3289,
      "relationship": 3290,
      "shot": 3291,
      "ize": 3292,
      "going": 3293,
      "structure": 3294,
      "Despite": 3295,
      "Henry": 3296,
      "hig": 3297,
      "pond": 3298,
      "bell": 3299,
      "ula": 3300,
      "Canada": 3301,
      "estimated": 3302,
      "Hol": 3303,
      "bow": 3304,
      "bri": 3305,
      "hard": 3306,
      "ti": 3307,
      "vice": 3308,
      "threat": 3309,
      "Carol": 3310,
      "bound": 3311,
      "oto": 3312,
      "treat": 3313,
      "ville": 3314,
      "itz": 3315,
      "aces": 3316,
      "olic": 3317,
      "comes": 3318,
      "quadron": 3319,
      "Brown": 3320,
      "native": 3321,
      "ray": 3322,
      "atory": 3323,
      "oring": 3324,
      "specific": 3325,
      "situ": 3326,
      "Oldham": 3327,
      "involved": 3328,
      "available": 3329,
      "But": 3330,
      "Em": 3331,
      "sat": 3332,
      "somet": 3333,
      "inst": 3334,
      "told": 3335,
      "Japanese": 3336,
      "highest": 3337,
      "President": 3338,
      "Times": 3339,
      "syn": 3340,
      "establish": 3341,
      "mixed": 3342,
      "Ter": 3343,
      "irth": 3344,
      "unk": 3345,
      "utes": 3346,
      "sia": 3347,
      "ption": 3348,
      "suggested": 3349,
      "Res": 3350,
      "cern": 3351,
      "hit": 3352,
      "ses": 3353,
      "thus": 3354,
      "touch": 3355,
      "ication": 3356,
      "cts": 3357,
      "actions": 3358,
      "inner": 3359,
      "turned": 3360,
      "scene": 3361,
      "introduced": 3362,
      "bit": 3363,
      "give": 3364,
      "sch": 3365,
      "watch": 3366,
      "league": 3367,
      "ention": 3368,
      "usually": 3369,
      "likely": 3370,
      "India": 3371,
      "Indian": 3372,
      "Olivier": 3373,
      "Gold": 3374,
      "Later": 3375,
      "NY": 3376,
      "School": 3377,
      "itself": 3378,
      "ami": 3379,
      "proper": 3380,
      "anna": 3381,
      "Arab": 3382,
      "transport": 3383,
      "Mexico": 3384,
      "Cong": 3385,
      "Pac": 3386,
      "enter": 3387,
      "responsi": 3388,
      "average": 3389,
      "Irish": 3390,
      "Rac": 3391,
      "cal": 3392,
      "rate": 3393,
      "educ": 3394,
      "ume": 3395,
      "lie": 3396,
      "occup": 3397,
      "block": 3398,
      "Star": 3399,
      "Super": 3400,
      "Egypt": 3401,
      "Rose": 3402,
      "Sm": 3403,
      "los": 3404,
      "usion": 3405,
      "ronic": 3406,
      "transfer": 3407,
      "damaged": 3408,
      "limited": 3409,
      "Mos": 3410,
      "hair": 3411,
      "size": 3412,
      "whose": 3413,
      "commiss": 3414,
      "recording": 3415,
      "possib": 3416,
      "village": 3417,
      "pot": 3418,
      "woman": 3419,
      "zz": 3420,
      "forward": 3421,
      "ries": 3422,
      "prepar": 3423,
      "habit": 3424,
      "Thomas": 3425,
      "fru": 3426,
      "hol": 3427,
      "happ": 3428,
      "aring": 3429,
      "respond": 3430,
      "ordered": 3431,
      "approxim": 3432,
      "religious": 3433,
      "Jer": 3434,
      "Pre": 3435,
      "Wheel": 3436,
      "oid": 3437,
      "prec": 3438,
      "text": 3439,
      "arts": 3440,
      "space": 3441,
      "temporary": 3442,
      "Hall": 3443,
      "Mal": 3444,
      "Mid": 3445,
      "chap": 3446,
      "intens": 3447,
      "icted": 3448,
      "object": 3449,
      "Britain": 3450,
      "shows": 3451,
      "marked": 3452,
      "commercial": 3453,
      "Republic": 3454,
      "Cer": 3455,
      "social": 3456,
      "yer": 3457,
      "independ": 3458,
      "aters": 3459,
      "aled": 3460,
      "arily": 3461,
      "lected": 3462,
      "capital": 3463,
      "increasing": 3464,
      "Hurricane": 3465,
      "eding": 3466,
      "Guitar": 3467,
      "Many": 3468,
      "Tom": 3469,
      "econom": 3470,
      "lot": 3471,
      "ny": 3472,
      "thedr": 3473,
      "ody": 3474,
      "feel": 3475,
      "despite": 3476,
      "archae": 3477,
      "nearly": 3478,
      "listed": 3479,
      "changes": 3480,
      "Mer": 3481,
      "nation": 3482,
      "Union": 3483,
      "Peter": 3484,
      "community": 3485,
      "Zealand": 3486,
      "fut": 3487,
      "defin": 3488,
      "agon": 3489,
      "pected": 3490,
      "ateg": 3491,
      "international": 3492,
      "surround": 3493,
      "asked": 3494,
      "Law": 3495,
      "daugh": 3496,
      "might": 3497,
      "states": 3498,
      "immedi": 3499,
      "exc": 3500,
      "box": 3501,
      "score": 3502,
      "cost": 3503,
      "inese": 3504,
      "initially": 3505,
      "Jin": 3506,
      "doc": 3507,
      "winning": 3508,
      "already": 3509,
      "ilities": 3510,
      "ctive": 3511,
      "execut": 3512,
      "commit": 3513,
      "That": 3514,
      "prevent": 3515,
      "related": 3516,
      "particip": 3517,
      "1st": 3518,
      "Card": 3519,
      "Hu": 3520,
      "NA": 3521,
      "aby": 3522,
      "failed": 3523,
      "sal": 3524,
      "enj": 3525,
      "ady": 3526,
      "nest": 3527,
      "Chinese": 3528,
      "Early": 3529,
      "Championship": 3530,
      "Pacific": 3531,
      "48": 3532,
      "Cath": 3533,
      "Sing": 3534,
      "rd": 3535,
      "espe": 3536,
      "according": 3537,
      "lies": 3538,
      "training": 3539,
      "occas": 3540,
      "bridge": 3541,
      "language": 3542,
      "probably": 3543,
      "especially": 3544,
      "food": 3545,
      "nel": 3546,
      "ett": 3547,
      "2002": 3548,
      "evol": 3549,
      "spent": 3550,
      "coach": 3551,
      "minor": 3552,
      "visit": 3553,
      "33": 3554,
      "Dan": 3555,
      "Tri": 3556,
      "mic": 3557,
      "nia": 3558,
      "urt": 3559,
      "moving": 3560,
      "phys": 3561,
      "studio": 3562,
      "natural": 3563,
      "Wheeler": 3564,
      "Sch": 3565,
      "ires": 3566,
      "liter": 3567,
      "pay": 3568,
      "inated": 3569,
      "ream": 3570,
      "aker": 3571,
      "includes": 3572,
      "arrived": 3573,
      "priv": 3574,
      "History": 3575,
      "39": 3576,
      "Awards": 3577,
      "Bal": 3578,
      "UK": 3579,
      "latter": 3580,
      "enough": 3581,
      "army": 3582,
      "acqu": 3583,
      "dead": 3584,
      "tons": 3585,
      "stein": 3586,
      "remaining": 3587,
      "quarters": 3588,
      "Canadian": 3589,
      "Angel": 3590,
      "thedral": 3591,
      "47": 3592,
      "Navy": 3593,
      "fail": 3594,
      "jour": 3595,
      "male": 3596,
      "apt": 3597,
      "notes": 3598,
      "active": 3599,
      "print": 3600,
      "ief": 3601,
      "sometimes": 3602,
      "Off": 3603,
      "bal": 3604,
      "mis": 3605,
      "rup": 3606,
      "ites": 3607,
      "ump": 3608,
      "aven": 3609,
      "187": 3610,
      "Arch": 3611,
      "Associ": 3612,
      "soldi": 3613,
      "required": 3614,
      "reviews": 3615,
      "circ": 3616,
      "approximately": 3617,
      "Film": 3618,
      "Je": 3619,
      "Light": 3620,
      "aj": 3621,
      "bot": 3622,
      "mat": 3623,
      "imp": 3624,
      "uded": 3625,
      "center": 3626,
      "rics": 3627,
      "FI": 3628,
      "ben": 3629,
      "cou": 3630,
      "slow": 3631,
      "entolo": 3632,
      "lymp": 3633,
      "perform": 3634,
      "2000": 3635,
      "decision": 3636,
      "beginning": 3637,
      "Africa": 3638,
      "Olymp": 3639,
      "fully": 3640,
      "ference": 3641,
      "running": 3642,
      "Virgin": 3643,
      "Creek": 3644,
      "Rus": 3645,
      "birth": 3646,
      "ga": 3647,
      "Scientolo": 3648,
      "better": 3649,
      "defeated": 3650,
      "flow": 3651,
      "mor": 3652,
      "whe": 3653,
      "staff": 3654,
      "ander": 3655,
      "additional": 3656,
      "Regiment": 3657,
      "Lo": 3658,
      "Ot": 3659,
      "bs": 3660,
      "asy": 3661,
      "concern": 3662,
      "president": 3663,
      "positive": 3664,
      "Art": 3665,
      "response": 3666,
      "Rachel": 3667,
      "Penn": 3668,
      "bio": 3669,
      "keep": 3670,
      "idea": 3671,
      "students": 3672,
      "constructed": 3673,
      "larger": 3674,
      "fleet": 3675,
      "Award": 3676,
      "hou": 3677,
      "mas": 3678,
      "zy": 3679,
      "conf": 3680,
      "appl": 3681,
      "aval": 3682,
      "poet": 3683,
      "ification": 3684,
      "supported": 3685,
      "Colle": 3686,
      "McC": 3687,
      "magazine": 3688,
      "changed": 3689,
      "Lu": 3690,
      "Sou": 3691,
      "frequ": 3692,
      "ores": 3693,
      "depression": 3694,
      "assigned": 3695,
      "pose": 3696,
      "pressure": 3697,
      "police": 3698,
      "prior": 3699,
      "Charles": 3700,
      "agreed": 3701,
      "uals": 3702,
      "stra": 3703,
      "amed": 3704,
      "cele": 3705,
      "osaurus": 3706,
      "material": 3707,
      "sil": 3708,
      "squ": 3709,
      "ases": 3710,
      "access": 3711,
      "teach": 3712,
      "shown": 3713,
      "screen": 3714,
      "1995": 3715,
      "Billboard": 3716,
      "Fort": 3717,
      "mir": 3718,
      "pet": 3719,
      "roll": 3720,
      "uments": 3721,
      "plays": 3722,
      "discovered": 3723,
      "subject": 3724,
      "selves": 3725,
      "feature": 3726,
      "rison": 3727,
      "fifth": 3728,
      "broadcast": 3729,
      "future": 3730,
      "ius": 3731,
      "contr": 3732,
      "provide": 3733,
      "Under": 3734,
      "Im": 3735,
      "pitch": 3736,
      "rat": 3737,
      "orm": 3738,
      "cean": 3739,
      "exam": 3740,
      "Scott": 3741,
      "37": 3742,
      "Oper": 3743,
      "RA": 3744,
      "Route": 3745,
      "kan": 3746,
      "enon": 3747,
      "becoming": 3748,
      "ifa": 3749,
      "temper": 3750,
      "Bri": 3751,
      "Sam": 3752,
      "Tur": 3753,
      "cm": 3754,
      "fill": 3755,
      "otion": 3756,
      "ishop": 3757,
      "colon": 3758,
      "surface": 3759,
      "Western": 3760,
      "summer": 3761,
      "paren": 3762,
      "edy": 3763,
      "sey": 3764,
      "defeat": 3765,
      "ept": 3766,
      "intended": 3767,
      "Wood": 3768,
      "gal": 3769,
      "uter": 3770,
      "rael": 3771,
      "operation": 3772,
      "smaller": 3773,
      "Frank": 3774,
      "professional": 3775,
      "Great": 3776,
      "Not": 3777,
      "fell": 3778,
      "ger": 3779,
      "link": 3780,
      "verse": 3781,
      "idents": 3782,
      "percent": 3783,
      "groups": 3784,
      "favor": 3785,
      "Scientology": 3786,
      "Year": 3787,
      "cred": 3788,
      "ih": 3789,
      "champion": 3790,
      "apo": 3791,
      "div": 3792,
      "pole": 3793,
      "mostly": 3794,
      "themselves": 3795,
      "metres": 3796,
      "alifor": 3797,
      "referred": 3798,
      "radio": 3799,
      "Haifa": 3800,
      "Camp": 3801,
      "Spe": 3802,
      "fa": 3803,
      "gent": 3804,
      "makes": 3805,
      "orial": 3806,
      "ili": 3807,
      "secur": 3808,
      "atest": 3809,
      "office": 3810,
      "2016": 3811,
      "minutes": 3812,
      "media": 3813,
      "stitute": 3814,
      "captured": 3815,
      "Croat": 3816,
      "How": 3817,
      "Since": 3818,
      "Var": 3819,
      "vic": 3820,
      "entered": 3821,
      "demon": 3822,
      "tray": 3823,
      "indic": 3824,
      "largely": 3825,
      "Parliament": 3826,
      "problems": 3827,
      "Association": 3828,
      "49": 3829,
      "Del": 3830,
      "Mil": 3831,
      "coup": 3832,
      "send": 3833,
      "veston": 3834,
      "reser": 3835,
      "artment": 3836,
      "bled": 3837,
      "ranked": 3838,
      "Che": 3839,
      "Lord": 3840,
      "Sur": 3841,
      "gir": 3842,
      "thick": 3843,
      "rein": 3844,
      "ously": 3845,
      "jected": 3846,
      "location": 3847,
      "orning": 3848,
      "Israel": 3849,
      "market": 3850,
      "Earth": 3851,
      "discuss": 3852,
      "Califor": 3853,
      "Gul": 3854,
      "Land": 3855,
      "ML": 3856,
      "ror": 3857,
      "ato": 3858,
      "enty": 3859,
      "ership": 3860,
      "iano": 3861,
      "pring": 3862,
      "contains": 3863,
      "rict": 3864,
      "flict": 3865,
      "stories": 3866,
      "closed": 3867,
      "Over": 3868,
      "money": 3869,
      "1999": 3870,
      "appears": 3871,
      "Bey": 3872,
      "voice": 3873,
      "experience": 3874,
      "Council": 3875,
      "Bro": 3876,
      "Haw": 3877,
      "nature": 3878,
      "yn": 3879,
      "adop": 3880,
      "aging": 3881,
      "guitar": 3882,
      "relative": 3883,
      "musical": 3884,
      "effects": 3885,
      "Galveston": 3886,
      "brief": 3887,
      "Ale": 3888,
      "hop": 3889,
      "ergy": 3890,
      "reme": 3891,
      "secut": 3892,
      "dev": 3893,
      "1950": 3894,
      "earth": 3895,
      "grant": 3896,
      "Chic": 3897,
      "create": 3898,
      "critical": 3899,
      "majority": 3900,
      "Jewish": 3901,
      "Kh": 3902,
      "ency": 3903,
      "iva": 3904,
      "Record": 3905,
      "culture": 3906,
      "jud": 3907,
      "ugu": 3908,
      "leaving": 3909,
      "election": 3910,
      "ario": 3911,
      "married": 3912,
      "schol": 3913,
      "bon": 3914,
      "rare": 3915,
      "attract": 3916,
      "depart": 3917,
      "vey": 3918,
      "ports": 3919,
      "Station": 3920,
      "load": 3921,
      "Another": 3922,
      "runs": 3923,
      "Brad": 3924,
      "primary": 3925,
      "Ca": 3926,
      "hus": 3927,
      "throw": 3928,
      "always": 3929,
      "lyrics": 3930,
      "lived": 3931,
      "upper": 3932,
      "minute": 3933,
      "writers": 3934,
      "films": 3935,
      "officers": 3936,
      "course": 3937,
      "gods": 3938,
      "iff": 3939,
      "mitted": 3940,
      "settle": 3941,
      "ospital": 3942,
      "launched": 3943,
      "California": 3944,
      "Fore": 3945,
      "La": 3946,
      "Sto": 3947,
      "wing": 3948,
      "deep": 3949,
      "determin": 3950,
      "traff": 3951,
      "illery": 3952,
      "teams": 3953,
      "onym": 3954,
      "equip": 3955,
      "quickly": 3956,
      "Catholic": 3957,
      "76": 3958,
      "If": 3959,
      "Mr": 3960,
      "Sol": 3961,
      "Sha": 3962,
      "fans": 3963,
      "insp": 3964,
      "ulated": 3965,
      "proposed": 3966,
      "neg": 3967,
      "emer": 3968,
      "meant": 3969,
      "episodes": 3970,
      "occurred": 3971,
      "Chicago": 3972,
      "Go": 3973,
      "Saint": 3974,
      "nis": 3975,
      "takes": 3976,
      "ining": 3977,
      "conv": 3978,
      "progress": 3979,
      "exper": 3980,
      "achi": 3981,
      "syl": 3982,
      "increase": 3983,
      "Battle": 3984,
      "fighting": 3985,
      "daughter": 3986,
      "whether": 3987,
      "Bow": 3988,
      "Latin": 3989,
      "Mart": 3990,
      "mur": 3991,
      "onto": 3992,
      "administ": 3993,
      "ellow": 3994,
      "fected": 3995,
      "Ital": 3996,
      "northeast": 3997,
      "cient": 3998,
      "books": 3999,
      "consider": 4000,
      "stream": 4001,
      "destroyed": 4002,
      "meaning": 4003,
      "traffic": 4004,
      "Cal": 4005,
      "Do": 4006,
      "Nix": 4007,
      "Sal": 4008,
      "Tour": 4009,
      "bad": 4010,
      "job": 4011,
      "ns": 4012,
      "andon": 4013,
      "trade": 4014,
      "hero": 4015,
      "bring": 4016,
      "Enter": 4017,
      "longer": 4018,
      "Central": 4019,
      "400": 4020,
      "Lou": 4021,
      "Ross": 4022,
      "Sever": 4023,
      "mom": 4024,
      "path": 4025,
      "sus": 4026,
      "wal": 4027,
      "theme": 4028,
      "umb": 4029,
      "vie": 4030,
      "Alice": 4031,
      "numbers": 4032,
      "Northern": 4033,
      "positions": 4034,
      "undred": 4035,
      "competition": 4036,
      "nucle": 4037,
      "carried": 4038,
      "soldiers": 4039,
      "Dj": 4040,
      "NC": 4041,
      "Tex": 4042,
      "kil": 4043,
      "mig": 4044,
      "leave": 4045,
      "semb": 4046,
      "olk": 4047,
      "awarded": 4048,
      "anger": 4049,
      "newsp": 4050,
      "celebr": 4051,
      "32": 4052,
      "3rd": 4053,
      "Mill": 4054,
      "Pat": 4055,
      "pit": 4056,
      "za": 4057,
      "plot": 4058,
      "boy": 4059,
      "1998": 4060,
      "directly": 4061,
      "piece": 4062,
      "conducted": 4063,
      "private": 4064,
      "Otto": 4065,
      "Dis": 4066,
      "Os": 4067,
      "Tre": 4068,
      "anal": 4069,
      "iser": 4070,
      "itor": 4071,
      "earned": 4072,
      "overall": 4073,
      "worth": 4074,
      "gue": 4075,
      "Alkan": 4076,
      "records": 4077,
      "Second": 4078,
      "attacks": 4079,
      "request": 4080,
      "subsequently": 4081,
      "Cour": 4082,
      "Liver": 4083,
      "Villa": 4084,
      "tom": 4085,
      "tourn": 4086,
      "itation": 4087,
      "1930": 4088,
      "plans": 4089,
      "20th": 4090,
      "weight": 4091,
      "bodies": 4092,
      "issued": 4093,
      "44": 4094,
      "Ty": 4095,
      "atops": 4096,
      "concert": 4097,
      "necess": 4098,
      "whole": 4099,
      "1993": 4100,
      "Polish": 4101,
      "industry": 4102,
      "influence": 4103,
      "commented": 4104,
      "double": 4105,
      "Jam": 4106,
      "Tay": 4107,
      "Tran": 4108,
      "done": 4109,
      "waters": 4110,
      "ón": 4111,
      "iny": 4112,
      "image": 4113,
      "actor": 4114,
      "serious": 4115,
      "finally": 4116,
      "Nixon": 4117,
      "Liverpool": 4118,
      "anish": 4119,
      "sets": 4120,
      "beat": 4121,
      "abs": 4122,
      "alled": 4123,
      "compared": 4124,
      "method": 4125,
      "finan": 4126,
      "greater": 4127,
      "personal": 4128,
      "scenes": 4129,
      "Georg": 4130,
      "network": 4131,
      "Somer": 4132,
      "Back": 4133,
      "Lady": 4134,
      "bomb": 4135,
      "cad": 4136,
      "pow": 4137,
      "purch": 4138,
      "anas": 4139,
      "bey": 4140,
      "unable": 4141,
      "concept": 4142,
      "suit": 4143,
      "prison": 4144,
      "party": 4145,
      "Its": 4146,
      "centre": 4147,
      "speed": 4148,
      "legal": 4149,
      "itting": 4150,
      "Texas": 4151,
      "Fow": 4152,
      "Foot": 4153,
      "Hum": 4154,
      "dig": 4155,
      "health": 4156,
      "deb": 4157,
      "istics": 4158,
      "expected": 4159,
      "discover": 4160,
      "aily": 4161,
      "mium": 4162,
      "standard": 4163,
      "buildings": 4164,
      "brother": 4165,
      "rapid": 4166,
      "Mosley": 4167,
      "Somerset": 4168,
      "300": 4169,
      "Tropical": 4170,
      "bury": 4171,
      "hood": 4172,
      "kind": 4173,
      "yet": 4174,
      "step": 4175,
      "shoot": 4176,
      "advant": 4177,
      "stitut": 4178,
      "Bob": 4179,
      "Boy": 4180,
      "Out": 4181,
      "Squadron": 4182,
      "Tenn": 4183,
      "cu": 4184,
      "cé": 4185,
      "dark": 4186,
      "information": 4187,
      "alo": 4188,
      "living": 4189,
      "bery": 4190,
      "1996": 4191,
      "begins": 4192,
      "traditional": 4193,
      "Busch": 4194,
      "Di": 4195,
      "Lake": 4196,
      "Ram": 4197,
      "bank": 4198,
      "kick": 4199,
      "escap": 4200,
      "ican": 4201,
      "terms": 4202,
      "possess": 4203,
      "giving": 4204,
      "aught": 4205,
      "status": 4206,
      "sylvan": 4207,
      "Vict": 4208,
      "hor": 4209,
      "edge": 4210,
      "withdraw": 4211,
      "ultim": 4212,
      "portion": 4213,
      "Christmas": 4214,
      "Spanish": 4215,
      "movement": 4216,
      "African": 4217,
      "marriage": 4218,
      "figure": 4219,
      "inspired": 4220,
      "Taylor": 4221,
      "Fle": 4222,
      "Met": 4223,
      "dated": 4224,
      "pil": 4225,
      "wa": 4226,
      "athan": 4227,
      "helped": 4228,
      "portray": 4229,
      "activity": 4230,
      "associated": 4231,
      "planned": 4232,
      "dollar": 4233,
      "Several": 4234,
      "Fowler": 4235,
      "Tem": 4236,
      "batter": 4237,
      "hic": 4238,
      "mes": 4239,
      "sched": 4240,
      "chall": 4241,
      "forts": 4242,
      "demand": 4243,
      "Three": 4244,
      "web": 4245,
      "regard": 4246,
      "Common": 4247,
      "starting": 4248,
      "tracks": 4249,
      "sequence": 4250,
      "schools": 4251,
      "suffered": 4252,
      "Sovi": 4253,
      "husband": 4254,
      "sembly": 4255,
      "Fin": 4256,
      "Ill": 4257,
      "Just": 4258,
      "Tru": 4259,
      "fit": 4260,
      "ram": 4261,
      "wound": 4262,
      "olf": 4263,
      "unit": 4264,
      "conflict": 4265,
      "cting": 4266,
      "Infantry": 4267,
      "shire": 4268,
      "venue": 4269,
      "allowing": 4270,
      "performances": 4271,
      "source": 4272,
      "machine": 4273,
      "34": 4274,
      "Games": 4275,
      "Jane": 4276,
      "ederal": 4277,
      "arc": 4278,
      "abandon": 4279,
      "continue": 4280,
      "presented": 4281,
      "incor": 4282,
      "Series": 4283,
      "expand": 4284,
      "Party": 4285,
      "condoms": 4286,
      "Live": 4287,
      "bid": 4288,
      "gas": 4289,
      "pi": 4290,
      "rical": 4291,
      "slight": 4292,
      "án": 4293,
      "atre": 4294,
      "presence": 4295,
      "photo": 4296,
      "polic": 4297,
      "greatest": 4298,
      "companies": 4299,
      "education": 4300,
      "Cast": 4301,
      "Long": 4302,
      "MS": 4303,
      "eu": 4304,
      "hu": 4305,
      "hundred": 4306,
      "park": 4307,
      "confir": 4308,
      "except": 4309,
      "nearby": 4310,
      "Paris": 4311,
      "Anderson": 4312,
      "Carolina": 4313,
      "document": 4314,
      "Virginia": 4315,
      "Pennsylvan": 4316,
      "Open": 4317,
      "Rad": 4318,
      "Ven": 4319,
      "rich": 4320,
      "ils": 4321,
      "ada": 4322,
      "prov": 4323,
      "anta": 4324,
      "log": 4325,
      "genus": 4326,
      "complex": 4327,
      "extended": 4328,
      "Acad": 4329,
      "Club": 4330,
      "collection": 4331,
      "composed": 4332,
      "types": 4333,
      "cyclone": 4334,
      "Queen": 4335,
      "AI": 4336,
      "Fre": 4337,
      "Six": 4338,
      "ience": 4339,
      "ker": 4340,
      "mist": 4341,
      "pick": 4342,
      "rum": 4343,
      "itude": 4344,
      "dem": 4345,
      "plant": 4346,
      "essa": 4347,
      "overnor": 4348,
      "itect": 4349,
      "weap": 4350,
      "annual": 4351,
      "metal": 4352,
      "services": 4353,
      "Meyer": 4354,
      "commander": 4355,
      "friends": 4356,
      "figures": 4357,
      "College": 4358,
      "BA": 4359,
      "Lan": 4360,
      "Water": 4361,
      "things": 4362,
      "oncé": 4363,
      "really": 4364,
      "oud": 4365,
      "heav": 4366,
      "acing": 4367,
      "ado": 4368,
      "iple": 4369,
      "1997": 4370,
      "numerous": 4371,
      "producer": 4372,
      "cathedral": 4373,
      "strength": 4374,
      "territory": 4375,
      "Beyoncé": 4376,
      "Ottoman": 4377,
      "Jose": 4378,
      "Museum": 4379,
      "Nico": 4380,
      "mouth": 4381,
      "ta": 4382,
      "tax": 4383,
      "err": 4384,
      "rot": 4385,
      "uries": 4386,
      "umed": 4387,
      "utch": 4388,
      "artist": 4389,
      "something": 4390,
      "Germany": 4391,
      "proteins": 4392,
      "Jackson": 4393,
      "vocals": 4394,
      "Miami": 4395,
      "individual": 4396,
      "enjoy": 4397,
      "Ever": 4398,
      "Nations": 4399,
      "bing": 4400,
      "pson": 4401,
      "Their": 4402,
      "mole": 4403,
      "division": 4404,
      "ipal": 4405,
      "Sea": 4406,
      "attacked": 4407,
      "issues": 4408,
      "Service": 4409,
      "nuclear": 4410,
      "target": 4411,
      "investig": 4412,
      "Minn": 4413,
      "Soci": 4414,
      "cat": 4415,
      "ki": 4416,
      "morning": 4417,
      "inent": 4418,
      "detail": 4419,
      "estival": 4420,
      "orders": 4421,
      "acting": 4422,
      "owned": 4423,
      "scient": 4424,
      "Through": 4425,
      "render": 4426,
      "observ": 4427,
      "highly": 4428,
      "distin": 4429,
      "attempts": 4430,
      "initial": 4431,
      "responsible": 4432,
      "5th": 4433,
      "6th": 4434,
      "Crit": 4435,
      "Cross": 4436,
      "Los": 4437,
      "Mem": 4438,
      "cis": 4439,
      "ec": 4440,
      "horse": 4441,
      "anced": 4442,
      "thes": 4443,
      "aspect": 4444,
      "adium": 4445,
      "beer": 4446,
      "vement": 4447,
      "artillery": 4448,
      "recover": 4449,
      "offered": 4450,
      "dise": 4451,
      "symb": 4452,
      "Prince": 4453,
      "ribution": 4454,
      "immediately": 4455,
      "Pennsylvania": 4456,
      "Fl": 4457,
      "Wel": 4458,
      "fast": 4459,
      "pun": 4460,
      "piano": 4461,
      "inside": 4462,
      "rect": 4463,
      "removed": 4464,
      "omer": 4465,
      "grand": 4466,
      "blood": 4467,
      "struction": 4468,
      "150": 4469,
      "severe": 4470,
      "distance": 4471,
      "studies": 4472,
      "Major": 4473,
      "sexual": 4474,
      "situation": 4475,
      "Dou": 4476,
      "Green": 4477,
      "Sir": 4478,
      "spl": 4479,
      "andid": 4480,
      "selected": 4481,
      "odon": 4482,
      "Chris": 4483,
      "Storm": 4484,
      "rule": 4485,
      "thens": 4486,
      "chester": 4487,
      "variety": 4488,
      "advance": 4489,
      "Scotland": 4490,
      "needed": 4491,
      "peaked": 4492,
      "houses": 4493,
      "Victor": 4494,
      "Bu": 4495,
      "Both": 4496,
      "Hot": 4497,
      "Pen": 4498,
      "lers": 4499,
      "pul": 4500,
      "ening": 4501,
      "ousand": 4502,
      "portun": 4503,
      "scoring": 4504,
      "means": 4505,
      "1991": 4506,
      "viewers": 4507,
      "headquarters": 4508,
      "Colon": 4509,
      "countries": 4510,
      "attempted": 4511,
      "copies": 4512,
      "murder": 4513,
      "Football": 4514,
      "46": 4515,
      "dro": 4516,
      "gain": 4517,
      "hi": 4518,
      "lb": 4519,
      "qual": 4520,
      "China": 4521,
      "appearances": 4522,
      "casual": 4523,
      "widely": 4524,
      "respectively": 4525,
      "Smith": 4526,
      "Govern": 4527,
      "eve": 4528,
      "alty": 4529,
      "secret": 4530,
      "eway": 4531,
      "eves": 4532,
      "spect": 4533,
      "annel": 4534,
      "higher": 4535,
      "describes": 4536,
      "middle": 4537,
      "Department": 4538,
      "touchdown": 4539,
      "Alex": 4540,
      "Cle": 4541,
      "Er": 4542,
      "Up": 4543,
      "cam": 4544,
      "corn": 4545,
      "xenon": 4546,
      "isation": 4547,
      "ications": 4548,
      "adult": 4549,
      "sec": 4550,
      "quality": 4551,
      "iving": 4552,
      "izing": 4553,
      "observed": 4554,
      "1992": 4555,
      "missed": 4556,
      "powerful": 4557,
      "Corps": 4558,
      "completely": 4559,
      "Braa": 4560,
      "impact": 4561,
      "heavily": 4562,
      "Bol": 4563,
      "Ka": 4564,
      "Time": 4565,
      "Young": 4566,
      "crow": 4567,
      "hed": 4568,
      "paper": 4569,
      "below": 4570,
      "iron": 4571,
      "mob": 4572,
      "true": 4573,
      "managed": 4574,
      "ender": 4575,
      "eval": 4576,
      "rane": 4577,
      "vised": 4578,
      "rug": 4579,
      "1994": 4580,
      "sixth": 4581,
      "matches": 4582,
      "Like": 4583,
      "meeting": 4584,
      "relief": 4585,
      "reduced": 4586,
      "rated": 4587,
      "rhy": 4588,
      "esota": 4589,
      "opportun": 4590,
      "ements": 4591,
      "affected": 4592,
      "award": 4593,
      "singer": 4594,
      "resulted": 4595,
      "stitution": 4596,
      "tellig": 4597,
      "Center": 4598,
      "words": 4599,
      "ricket": 4600,
      "concluded": 4601,
      "audience": 4602,
      "parents": 4603,
      "Minnesota": 4604,
      "Prote": 4605,
      "hour": 4606,
      "jun": 4607,
      "lic": 4608,
      "pra": 4609,
      "wear": 4610,
      "clim": 4611,
      "akapo": 4612,
      "offer": 4613,
      "sole": 4614,
      "Force": 4615,
      "inkel": 4616,
      "activities": 4617,
      "viron": 4618,
      "42": 4619,
      "Are": 4620,
      "Bul": 4621,
      "Fur": 4622,
      "Jim": 4623,
      "Jul": 4624,
      "Pan": 4625,
      "Post": 4626,
      "mile": 4627,
      "rout": 4628,
      "var": 4629,
      "ert": 4630,
      "stating": 4631,
      "armed": 4632,
      "chor": 4633,
      "contemporary": 4634,
      "die": 4635,
      "aware": 4636,
      "athus": 4637,
      "phy": 4638,
      "write": 4639,
      "drum": 4640,
      "draft": 4641,
      "declared": 4642,
      "Townsend": 4643,
      "revealed": 4644,
      "Rosebery": 4645,
      "Southern": 4646,
      "Hawai": 4647,
      "Italian": 4648,
      "Ben": 4649,
      "Dist": 4650,
      "Van": 4651,
      "ging": 4652,
      "sa": 4653,
      "oft": 4654,
      "heart": 4655,
      "residents": 4656,
      "excl": 4657,
      "wealth": 4658,
      "refused": 4659,
      "levels": 4660,
      "historical": 4661,
      "trees": 4662,
      "separate": 4663,
      "Meyerbeer": 4664,
      "4th": 4665,
      "Dam": 4666,
      "Fri": 4667,
      "Finkel": 4668,
      "brown": 4669,
      "core": 4670,
      "drew": 4671,
      "ustr": 4672,
      "thers": 4673,
      "isl": 4674,
      "opin": 4675,
      "peace": 4676,
      "ift": 4677,
      "offensive": 4678,
      "Thunder": 4679,
      "pret": 4680,
      "charge": 4681,
      "Because": 4682,
      "1970": 4683,
      "faced": 4684,
      "initi": 4685,
      "Walpole": 4686,
      "contrast": 4687,
      "Finkelstein": 4688,
      "Dire": 4689,
      "Tessa": 4690,
      "Yue": 4691,
      "cere": 4692,
      "uth": 4693,
      "reception": 4694,
      "today": 4695,
      "university": 4696,
      "peror": 4697,
      "bles": 4698,
      "blue": 4699,
      "recent": 4700,
      "ension": 4701,
      "elected": 4702,
      "Leg": 4703,
      "background": 4704,
      "Shiva": 4705,
      "featuring": 4706,
      "carry": 4707,
      "titles": 4708,
      "typically": 4709,
      "vocal": 4710,
      "Adam": 4711,
      "Nes": 4712,
      "Pit": 4713,
      "fish": 4714,
      "kin": 4715,
      "vehic": 4716,
      "tran": 4717,
      "havi": 4718,
      "grass": 4719,
      "conditions": 4720,
      "ledge": 4721,
      "maxim": 4722,
      "Blue": 4723,
      "hands": 4724,
      "sites": 4725,
      "Illino": 4726,
      "Nicole": 4727,
      "Society": 4728,
      "Cra": 4729,
      "Gi": 4730,
      "bat": 4731,
      "pup": 4732,
      "iled": 4733,
      "becomes": 4734,
      "Indu": 4735,
      "lip": 4736,
      "ounds": 4737,
      "assault": 4738,
      "attention": 4739,
      "weaken": 4740,
      "mainly": 4741,
      "forest": 4742,
      "efforts": 4743,
      "tower": 4744,
      "organized": 4745,
      "girl": 4746,
      "Rob": 4747,
      "Turn": 4748,
      "bul": 4749,
      "ka": 4750,
      "sense": 4751,
      "winter": 4752,
      "instr": 4753,
      "ulpt": 4754,
      "poly": 4755,
      "shell": 4756,
      "color": 4757,
      "strugg": 4758,
      "produce": 4759,
      "specim": 4760,
      "Johnson": 4761,
      "divided": 4762,
      "Highway": 4763,
      "evolution": 4764,
      "Braathens": 4765,
      "Little": 4766,
      "Tod": 4767,
      "dition": 4768,
      "ufact": 4769,
      "wick": 4770,
      "ene": 4771,
      "estic": 4772,
      "mentioned": 4773,
      "actually": 4774,
      "athlet": 4775,
      "mond": 4776,
      "architect": 4777,
      "struck": 4778,
      "calling": 4779,
      "tainment": 4780,
      "depict": 4781,
      "protein": 4782,
      "extreme": 4783,
      "ysis": 4784,
      "Hait": 4785,
      "practice": 4786,
      "demonstr": 4787,
      "Court": 4788,
      "advantage": 4789,
      "incorpor": 4790,
      "Of": 4791,
      "border": 4792,
      "folk": 4793,
      "thousand": 4794,
      "alle": 4795,
      "roles": 4796,
      "preser": 4797,
      "flank": 4798,
      "cannot": 4799,
      "1990": 4800,
      "seasons": 4801,
      "transl": 4802,
      "rights": 4803,
      "Book": 4804,
      "says": 4805,
      "Portugu": 4806,
      "combat": 4807,
      "accepted": 4808,
      "achieved": 4809,
      "Soviet": 4810,
      "Government": 4811,
      "9th": 4812,
      "Bet": 4813,
      "Fam": 4814,
      "Mog": 4815,
      "fiction": 4816,
      "atives": 4817,
      "ider": 4818,
      "180": 4819,
      "anning": 4820,
      "Group": 4821,
      "Vietnam": 4822,
      "Captain": 4823,
      "deliver": 4824,
      "fruit": 4825,
      "Portuguese": 4826,
      "Emp": 4827,
      "SR": 4828,
      "Tele": 4829,
      "ban": 4830,
      "kes": 4831,
      "oo": 4832,
      "paid": 4833,
      "tailed": 4834,
      "infantry": 4835,
      "rem": 4836,
      "restr": 4837,
      "sust": 4838,
      "sculpt": 4839,
      "helm": 4840,
      "function": 4841,
      "Spain": 4842,
      "arent": 4843,
      "primarily": 4844,
      "Academy": 4845,
      "96": 4846,
      "Burn": 4847,
      "Civil": 4848,
      "push": 4849,
      "sales": 4850,
      "sister": 4851,
      "wen": 4852,
      "iles": 4853,
      "union": 4854,
      "berg": 4855,
      "twenty": 4856,
      "scale": 4857,
      "rance": 4858,
      "spread": 4859,
      "Engine": 4860,
      "1986": 4861,
      "Secret": 4862,
      "extensive": 4863,
      "inches": 4864,
      "commissioned": 4865,
      "slightly": 4866,
      "Horse": 4867,
      "Ocean": 4868,
      "Sarn": 4869,
      "Tint": 4870,
      "Way": 4871,
      "cers": 4872,
      "igan": 4873,
      "ows": 4874,
      "concent": 4875,
      "expressed": 4876,
      "creation": 4877,
      "visions": 4878,
      "Form": 4879,
      "Fey": 4880,
      "protest": 4881,
      "county": 4882,
      "ceeded": 4883,
      "onymous": 4884,
      "Louis": 4885,
      "53": 4886,
      "Def": 4887,
      "farm": 4888,
      "gn": 4889,
      "sides": 4890,
      "shore": 4891,
      "neigh": 4892,
      "Studi": 4893,
      "boat": 4894,
      "serve": 4895,
      "phil": 4896,
      "ologist": 4897,
      "showed": 4898,
      "officer": 4899,
      "titled": 4900,
      "defense": 4901,
      "street": 4902,
      "looking": 4903,
      "excav": 4904,
      "Welsh": 4905,
      "Tintin": 4906,
      "Oda": 4907,
      "Sil": 4908,
      "Zhou": 4909,
      "bour": 4910,
      "bitt": 4911,
      "ras": 4912,
      "rey": 4913,
      "recomm": 4914,
      "prop": 4915,
      "ems": 4916,
      "raid": 4917,
      "Though": 4918,
      "themes": 4919,
      "battalion": 4920,
      "Andrew": 4921,
      "represented": 4922,
      "combined": 4923,
      "Ceres": 4924,
      "Varanas": 4925,
      "newspaper": 4926,
      "vironment": 4927,
      "ceremon": 4928,
      "Empire": 4929,
      "Varanasi": 4930,
      "55": 4931,
      "7th": 4932,
      "Fred": 4933,
      "PA": 4934,
      "Rh": 4935,
      "gam": 4936,
      "mess": 4937,
      "thir": 4938,
      "ental": 4939,
      "ulations": 4940,
      "umn": 4941,
      "osen": 4942,
      "astic": 4943,
      "avoid": 4944,
      "Commun": 4945,
      "captain": 4946,
      "founded": 4947,
      "places": 4948,
      "Produ": 4949,
      "cultural": 4950,
      "mountain": 4951,
      "Apple": 4952,
      "square": 4953,
      "casualties": 4954,
      "Nesbitt": 4955,
      "Odaen": 4956,
      "Bur": 4957,
      "cies": 4958,
      "hill": 4959,
      "ancient": 4960,
      "repe": 4961,
      "reign": 4962,
      "revol": 4963,
      "alone": 4964,
      "esh": 4965,
      "lif": 4966,
      "ordin": 4967,
      "science": 4968,
      "Ann": 4969,
      "workers": 4970,
      "Demo": 4971,
      "direction": 4972,
      "identified": 4973,
      "continues": 4974,
      "Francis": 4975,
      "castle": 4976,
      "earliest": 4977,
      "Eva": 4978,
      "Angeles": 4979,
      "Illinois": 4980,
      "Odaenathus": 4981,
      "56": 4982,
      "CA": 4983,
      "Home": 4984,
      "MD": 4985,
      "Wash": 4986,
      "eth": 4987,
      "lock": 4988,
      "ole": 4989,
      "rush": 4990,
      "sac": 4991,
      "uzz": 4992,
      "agan": 4993,
      "1920": 4994,
      "artists": 4995,
      "manufact": 4996,
      "18th": 4997,
      "content": 4998,
      "phen": 4999,
      "doing": 5000,
      "pedo": 5001,
      "letters": 5002,
      "officially": 5003,
      "northwest": 5004,
      "resulting": 5005,
      "graphic": 5006,
      "authorities": 5007,
      "influenced": 5008,
      "DuMont": 5009,
      "narrow": 5010,
      "flooding": 5011,
      "Olympic": 5012,
      "adopted": 5013,
      "Records": 5014,
      "disease": 5015,
      "Mogad": 5016,
      "Sarnia": 5017,
      "Der": 5018,
      "Night": 5019,
      "ares": 5020,
      "wild": 5021,
      "zed": 5022,
      "advert": 5023,
      "proved": 5024,
      "diss": 5025,
      "News": 5026,
      "reports": 5027,
      "apparent": 5028,
      "southeast": 5029,
      "basis": 5030,
      "Simpson": 5031,
      "eye": 5032,
      "Four": 5033,
      "Ob": 5034,
      "Pop": 5035,
      "candid": 5036,
      "patter": 5037,
      "rating": 5038,
      "inth": 5039,
      "eds": 5040,
      "toward": 5041,
      "chair": 5042,
      "uled": 5043,
      "exhib": 5044,
      "perman": 5045,
      "complet": 5046,
      "spot": 5047,
      "door": 5048,
      "Wilhelm": 5049,
      "Manchester": 5050,
      "Week": 5051,
      "broken": 5052,
      "begin": 5053,
      "soundtrack": 5054,
      "Middle": 5055,
      "tournament": 5056,
      "Mat": 5057,
      "Ve": 5058,
      "kakapo": 5059,
      "yellow": 5060,
      "zer": 5061,
      "edition": 5062,
      "encour": 5063,
      "delay": 5064,
      "older": 5065,
      "otional": 5066,
      "oppon": 5067,
      "awa": 5068,
      "effort": 5069,
      "alongside": 5070,
      "plement": 5071,
      "Clark": 5072,
      "royal": 5073,
      "capture": 5074,
      "ovic": 5075,
      "focus": 5076,
      "torpedo": 5077,
      "occasion": 5078,
      "physical": 5079,
      "relatively": 5080,
      "Washington": 5081,
      "95": 5082,
      "Bon": 5083,
      "Horn": 5084,
      "Lar": 5085,
      "Max": 5086,
      "Oma": 5087,
      "cities": 5088,
      "greg": 5089,
      "va": 5090,
      "dete": 5091,
      "iana": 5092,
      "attended": 5093,
      "contain": 5094,
      "mechan": 5095,
      "Conf": 5096,
      "1988": 5097,
      "tried": 5098,
      "vention": 5099,
      "individuals": 5100,
      "measure": 5101,
      "losing": 5102,
      "transferred": 5103,
      "cadmium": 5104,
      "Mass": 5105,
      "Sum": 5106,
      "Sky": 5107,
      "dress": 5108,
      "kare": 5109,
      "master": 5110,
      "sian": 5111,
      "height": 5112,
      "adel": 5113,
      "behavi": 5114,
      "opposed": 5115,
      "abama": 5116,
      "shap": 5117,
      "neut": 5118,
      "prise": 5119,
      "princ": 5120,
      "boats": 5121,
      "contact": 5122,
      "Alabama": 5123,
      "officials": 5124,
      "require": 5125,
      "rainfall": 5126,
      "dedicated": 5127,
      "surrounding": 5128,
      "determined": 5129,
      "Joseph": 5130,
      "Mogadish": 5131,
      "Omaha": 5132,
      "Bre": 5133,
      "Dest": 5134,
      "Kent": 5135,
      "Ly": 5136,
      "Op": 5137,
      "rise": 5138,
      "sn": 5139,
      "uan": 5140,
      "restor": 5141,
      "energy": 5142,
      "asc": 5143,
      "Innis": 5144,
      "lives": 5145,
      "illustr": 5146,
      "orses": 5147,
      "letter": 5148,
      "Mean": 5149,
      "Edward": 5150,
      "possibly": 5151,
      "journal": 5152,
      "Fant": 5153,
      "VD": 5154,
      "hang": 5155,
      "ners": 5156,
      "your": 5157,
      "ises": 5158,
      "ingu": 5159,
      "images": 5160,
      "oph": 5161,
      "Independ": 5162,
      "shape": 5163,
      "timore": 5164,
      "guest": 5165,
      "Argent": 5166,
      "Reception": 5167,
      "follows": 5168,
      "1940": 5169,
      "1960s": 5170,
      "designated": 5171,
      "shortly": 5172,
      "Perón": 5173,
      "society": 5174,
      "gradu": 5175,
      "spirit": 5176,
      "Helms": 5177,
      "intensity": 5178,
      "financial": 5179,
      "dissip": 5180,
      "Mogadishu": 5181,
      "51": 5182,
      "FE": 5183,
      "Far": 5184,
      "GA": 5185,
      "Jour": 5186,
      "Lis": 5187,
      "Men": 5188,
      "smo": 5189,
      "yle": 5190,
      "onom": 5191,
      "imony": 5192,
      "opt": 5193,
      "umber": 5194,
      "serving": 5195,
      "albums": 5196,
      "suppl": 5197,
      "1980s": 5198,
      "1964": 5199,
      "simply": 5200,
      "borough": 5201,
      "Histor": 5202,
      "sources": 5203,
      "McCall": 5204,
      "security": 5205,
      "maximum": 5206,
      "64": 5207,
      "Ban": 5208,
      "Bir": 5209,
      "Cre": 5210,
      "Hy": 5211,
      "Kore": 5212,
      "Sen": 5213,
      "gi": 5214,
      "kept": 5215,
      "museum": 5216,
      "oil": 5217,
      "wave": 5218,
      "rear": 5219,
      "iced": 5220,
      "seek": 5221,
      "comedy": 5222,
      "movie": 5223,
      "artic": 5224,
      "emphas": 5225,
      "actors": 5226,
      "condition": 5227,
      "visited": 5228,
      "Assembly": 5229,
      "legisl": 5230,
      "passes": 5231,
      "frag": 5232,
      "buried": 5233,
      "successfully": 5234,
      "management": 5235,
      "pieces": 5236,
      "potential": 5237,
      "couple": 5238,
      "necessary": 5239,
      "97": 5240,
      "Jup": 5241,
      "dut": 5242,
      "gained": 5243,
      "spring": 5244,
      "tur": 5245,
      "vation": 5246,
      "ura": 5247,
      "verted": 5248,
      "clo": 5249,
      "Commission": 5250,
      "domestic": 5251,
      "grew": 5252,
      "planet": 5253,
      "PlayStation": 5254,
      "argued": 5255,
      "Fleet": 5256,
      "Rih": 5257,
      "Tu": 5258,
      "paint": 5259,
      "sand": 5260,
      "intellig": 5261,
      "aling": 5262,
      "lys": 5263,
      "chief": 5264,
      "share": 5265,
      "asty": 5266,
      "ached": 5267,
      "depth": 5268,
      "cases": 5269,
      "suggests": 5270,
      "authority": 5271,
      "projects": 5272,
      "Hamels": 5273,
      "connected": 5274,
      "Valley": 5275,
      "Baltimore": 5276,
      "Rihanna": 5277,
      "600": 5278,
      "Bank": 5279,
      "DVD": 5280,
      "Gall": 5281,
      "Writ": 5282,
      "hospital": 5283,
      "recon": 5284,
      "ati": 5285,
      "ora": 5286,
      "entrance": 5287,
      "advent": 5288,
      "belong": 5289,
      "ols": 5290,
      "unique": 5291,
      "consecut": 5292,
      "resh": 5293,
      "umes": 5294,
      "uten": 5295,
      "extr": 5296,
      "extra": 5297,
      "twice": 5298,
      "Chap": 5299,
      "weak": 5300,
      "premi": 5301,
      "versions": 5302,
      "bute": 5303,
      "icks": 5304,
      "normal": 5305,
      "Constant": 5306,
      "Short": 5307,
      "passing": 5308,
      "causing": 5309,
      "placement": 5310,
      "defence": 5311,
      "claims": 5312,
      "structures": 5313,
      "criticized": 5314,
      "Palest": 5315,
      "invas": 5316,
      "homes": 5317,
      "Bowl": 5318,
      "Djed": 5319,
      "ultimately": 5320,
      "website": 5321,
      "43": 5322,
      "Lew": 5323,
      "Mah": 5324,
      "SP": 5325,
      "Tim": 5326,
      "han": 5327,
      "alleg": 5328,
      "deploy": 5329,
      "propos": 5330,
      "containing": 5331,
      "vessel": 5332,
      "results": 5333,
      "holds": 5334,
      "industri": 5335,
      "debuted": 5336,
      "negative": 5337,
      "Jupiter": 5338,
      "Djedkare": 5339,
      "65": 5340,
      "Cy": 5341,
      "Den": 5342,
      "Dun": 5343,
      "Gir": 5344,
      "Han": 5345,
      "Hib": 5346,
      "More": 5347,
      "NH": 5348,
      "Rol": 5349,
      "bud": 5350,
      "fox": 5351,
      "kg": 5352,
      "lane": 5353,
      "tun": 5354,
      "beach": 5355,
      "chosen": 5356,
      "tex": 5357,
      "foreign": 5358,
      "aired": 5359,
      "obtain": 5360,
      "1947": 5361,
      "Isa": 5362,
      "student": 5363,
      "defensive": 5364,
      "battles": 5365,
      "organization": 5366,
      "broke": 5367,
      "mounted": 5368,
      "favour": 5369,
      "growing": 5370,
      "currently": 5371,
      "collabor": 5372,
      "Torres": 5373,
      "rupt": 5374,
      "wounded": 5375,
      "41": 5376,
      "Baby": 5377,
      "Jon": 5378,
      "Kar": 5379,
      "Lock": 5380,
      "Ox": 5381,
      "Ul": 5382,
      "eigh": 5383,
      "iro": 5384,
      "mort": 5385,
      "rejected": 5386,
      "lying": 5387,
      "imin": 5388,
      "else": 5389,
      "brigade": 5390,
      "mind": 5391,
      "1987": 5392,
      "prominent": 5393,
      "reference": 5394,
      "Eastern": 5395,
      "animal": 5396,
      "independent": 5397,
      "granted": 5398,
      "analysis": 5399,
      "abandoned": 5400,
      "confirmed": 5401,
      "consecutive": 5402,
      "Field": 5403,
      "Ry": 5404,
      "bishop": 5405,
      "tank": 5406,
      "aine": 5407,
      "quake": 5408,
      "temple": 5409,
      "regions": 5410,
      "colony": 5411,
      "Once": 5412,
      "seconds": 5413,
      "therefore": 5414,
      "1941": 5415,
      "operated": 5416,
      "azz": 5417,
      "famous": 5418,
      "pursu": 5419,
      "Airport": 5420,
      "cells": 5421,
      "growth": 5422,
      "benef": 5423,
      "Scottish": 5424,
      "Forest": 5425,
      "Applewhite": 5426,
      "120": 5427,
      "BBC": 5428,
      "Down": 5429,
      "Good": 5430,
      "ba": 5431,
      "tact": 5432,
      "thr": 5433,
      "enemy": 5434,
      "acad": 5435,
      "resol": 5436,
      "mosp": 5437,
      "Head": 5438,
      "speak": 5439,
      "phia": 5440,
      "newly": 5441,
      "gency": 5442,
      "singles": 5443,
      "roads": 5444,
      "SAFE": 5445,
      "model": 5446,
      "selling": 5447,
      "moment": 5448,
      "adelphia": 5449,
      "ahead": 5450,
      "fat": 5451,
      "glo": 5452,
      "pack": 5453,
      "arms": 5454,
      "ilies": 5455,
      "chance": 5456,
      "Institute": 5457,
      "ocated": 5458,
      "perfect": 5459,
      "weather": 5460,
      "views": 5461,
      "1970s": 5462,
      "solo": 5463,
      "controlled": 5464,
      "reaching": 5465,
      "explained": 5466,
      "sky": 5467,
      "knowledge": 5468,
      "nominated": 5469,
      "seems": 5470,
      "Egyptian": 5471,
      "prepared": 5472,
      "Premi": 5473,
      "straight": 5474,
      "temperature": 5475,
      "equipment": 5476,
      "Background": 5477,
      "Dev": 5478,
      "Due": 5479,
      "Greek": 5480,
      "Vide": 5481,
      "branch": 5482,
      "cust": 5483,
      "dates": 5484,
      "hur": 5485,
      "ii": 5486,
      "males": 5487,
      "rative": 5488,
      "edar": 5489,
      "environment": 5490,
      "tomb": 5491,
      "imag": 5492,
      "Child": 5493,
      "fired": 5494,
      "loy": 5495,
      "guan": 5496,
      "element": 5497,
      "address": 5498,
      "1984": 5499,
      "1989": 5500,
      "Before": 5501,
      "leader": 5502,
      "1972": 5503,
      "returning": 5504,
      "council": 5505,
      "servation": 5506,
      "supporting": 5507,
      "Guard": 5508,
      "prompt": 5509,
      "burg": 5510,
      "problem": 5511,
      "urban": 5512,
      "freeway": 5513,
      "Croatia": 5514,
      "settlement": 5515,
      "Further": 5516,
      "8th": 5517,
      "Ath": 5518,
      "Abu": 5519,
      "Eli": 5520,
      "Each": 5521,
      "HMS": 5522,
      "Kir": 5523,
      "Mu": 5524,
      "Public": 5525,
      "Sub": 5526,
      "Xe": 5527,
      "ote": 5528,
      "rig": 5529,
      "tav": 5530,
      "repair": 5531,
      "atmosp": 5532,
      "stations": 5533,
      "unknown": 5534,
      "otes": 5535,
      "firm": 5536,
      "Stan": 5537,
      "achie": 5538,
      "writes": 5539,
      "ocks": 5540,
      "1985": 5541,
      "breeding": 5542,
      "Origin": 5543,
      "strike": 5544,
      "Mike": 5545,
      "employed": 5546,
      "question": 5547,
      "increasingly": 5548,
      "economic": 5549,
      "literature": 5550,
      "Operation": 5551,
      "130": 5552,
      "Ari": 5553,
      "Ali": 5554,
      "Ret": 5555,
      "big": 5556,
      "catch": 5557,
      "ya": 5558,
      "theory": 5559,
      "ranged": 5560,
      "disp": 5561,
      "commonly": 5562,
      "ideas": 5563,
      "1960": 5564,
      "systems": 5565,
      "believe": 5566,
      "Barrow": 5567,
      "historian": 5568,
      "burns": 5569,
      "Swed": 5570,
      "Cardiff": 5571,
      "Big": 5572,
      "CE": 5573,
      "Even": 5574,
      "Mic": 5575,
      "Mort": 5576,
      "Never": 5577,
      "Slam": 5578,
      "cricket": 5579,
      "wit": 5580,
      "stood": 5581,
      "arrest": 5582,
      "arrang": 5583,
      "icient": 5584,
      "ches": 5585,
      "oppos": 5586,
      "aret": 5587,
      "illo": 5588,
      "herself": 5589,
      "landfall": 5590,
      "rence": 5591,
      "rub": 5592,
      "Only": 5593,
      "singing": 5594,
      "Develop": 5595,
      "parliament": 5596,
      "clean": 5597,
      "1944": 5598,
      "fields": 5599,
      "marks": 5600,
      "Class": 5601,
      "killing": 5602,
      "advanced": 5603,
      "females": 5604,
      "Keats": 5605,
      "Michigan": 5606,
      "experienced": 5607,
      "Philadelphia": 5608,
      "consisted": 5609,
      "dropped": 5610,
      "property": 5611,
      "Congress": 5612,
      "Rog": 5613,
      "Sat": 5614,
      "aer": 5615,
      "horses": 5616,
      "iation": 5617,
      "labor": 5618,
      "inem": 5619,
      "ont": 5620,
      "alions": 5621,
      "semi": 5622,
      "deities": 5623,
      "agement": 5624,
      "ria": 5625,
      "resc": 5626,
      "resist": 5627,
      "prot": 5628,
      "exped": 5629,
      "compar": 5630,
      "serves": 5631,
      "attend": 5632,
      "note": 5633,
      "1990s": 5634,
      "asket": 5635,
      "belief": 5636,
      "join": 5637,
      "Addition": 5638,
      "Mounted": 5639,
      "flying": 5640,
      "phase": 5641,
      "maintained": 5642,
      "failure": 5643,
      "kilomet": 5644,
      "Meanwhile": 5645,
      "87": 5646,
      "94": 5647,
      "Dutch": 5648,
      "Gard": 5649,
      "Hart": 5650,
      "RE": 5651,
      "Si": 5652,
      "din": 5653,
      "fict": 5654,
      "federal": 5655,
      "pict": 5656,
      "resem": 5657,
      "asure": 5658,
      "ulate": 5659,
      "rival": 5660,
      "aved": 5661,
      "awards": 5662,
      "Anth": 5663,
      "finals": 5664,
      "Album": 5665,
      "minim": 5666,
      "filmed": 5667,
      "value": 5668,
      "risk": 5669,
      "domin": 5670,
      "defend": 5671,
      "promoted": 5672,
      "publication": 5673,
      "humans": 5674,
      "ski": 5675,
      "popularity": 5676,
      "teenth": 5677,
      "religion": 5678,
      "honor": 5679,
      "injury": 5680,
      "multiple": 5681,
      "frequently": 5682,
      "pitched": 5683,
      "budget": 5684,
      "Bas": 5685,
      "Fer": 5686,
      "Fish": 5687,
      "Line": 5688,
      "Nathan": 5689,
      "fied": 5690,
      "laid": 5691,
      "matter": 5692,
      "nasty": 5693,
      "pal": 5694,
      "tree": 5695,
      "lection": 5696,
      "deg": 5697,
      "ager": 5698,
      "usual": 5699,
      "actress": 5700,
      "Italy": 5701,
      "regarded": 5702,
      "retired": 5703,
      "families": 5704,
      "km2": 5705,
      "restaur": 5706,
      "allows": 5707,
      "Steve": 5708,
      "Andy": 5709,
      "walls": 5710,
      "recognized": 5711,
      "Minister": 5712,
      "Jeff": 5713,
      "rapidly": 5714,
      "battery": 5715,
      "weapons": 5716,
      "Bost": 5717,
      "Greg": 5718,
      "Mur": 5719,
      "Pet": 5720,
      "Sup": 5721,
      "bark": 5722,
      "ying": 5723,
      "agric": 5724,
      "plat": 5725,
      "trail": 5726,
      "emic": 5727,
      "computer": 5728,
      "creating": 5729,
      "Americans": 5730,
      "Conference": 5731,
      "description": 5732,
      "starts": 5733,
      "promotion": 5734,
      "significantly": 5735,
      "multi": 5736,
      "bottom": 5737,
      "cougar": 5738,
      "invasion": 5739,
      "Video": 5740,
      "agricult": 5741,
      "Final": 5742,
      "bra": 5743,
      "data": 5744,
      "haps": 5745,
      "sought": 5746,
      "reaction": 5747,
      "beaut": 5748,
      "chose": 5749,
      "ott": 5750,
      "ishes": 5751,
      "acts": 5752,
      "crete": 5753,
      "producers": 5754,
      "highlight": 5755,
      "volume": 5756,
      "simple": 5757,
      "green": 5758,
      "seventh": 5759,
      "agreement": 5760,
      "sports": 5761,
      "strengthen": 5762,
      "occupied": 5763,
      "filled": 5764,
      "scholar": 5765,
      "scheduled": 5766,
      "aspects": 5767,
      "Cold": 5768,
      "Gord": 5769,
      "Haven": 5770,
      "Nich": 5771,
      "Sus": 5772,
      "TC": 5773,
      "Well": 5774,
      "dan": 5775,
      "lap": 5776,
      "mast": 5777,
      "sun": 5778,
      "inscript": 5779,
      "theless": 5780,
      "oration": 5781,
      "altar": 5782,
      "outer": 5783,
      "accompan": 5784,
      "del": 5785,
      "train": 5786,
      "landing": 5787,
      "news": 5788,
      "160": 5789,
      "1981": 5790,
      "apping": 5791,
      "drive": 5792,
      "namese": 5793,
      "virt": 5794,
      "Vietnamese": 5795,
      "victim": 5796,
      "Gulf": 5797,
      "susp": 5798,
      "nucleus": 5799,
      "sustained": 5800,
      "philos": 5801,
      "66": 5802,
      "Blo": 5803,
      "CD": 5804,
      "Domin": 5805,
      "Jes": 5806,
      "Naz": 5807,
      "Tra": 5808,
      "avi": 5809,
      "dream": 5810,
      "fair": 5811,
      "fought": 5812,
      "gather": 5813,
      "hall": 5814,
      "jack": 5815,
      "mical": 5816,
      "oon": 5817,
      "āda": 5818,
      "ena": 5819,
      "isol": 5820,
      "iding": 5821,
      "antimony": 5822,
      "afety": 5823,
      "guard": 5824,
      "miner": 5825,
      "colour": 5826,
      "17th": 5827,
      "trial": 5828,
      "Pho": 5829,
      "collected": 5830,
      "Cole": 5831,
      "Among": 5832,
      "Cambod": 5833,
      "Thunderbirds": 5834,
      "Ros": 5835,
      "save": 5836,
      "wed": 5837,
      "ini": 5838,
      "stock": 5839,
      "acks": 5840,
      "scar": 5841,
      "contained": 5842,
      "ween": 5843,
      "izes": 5844,
      "angers": 5845,
      "visual": 5846,
      "underground": 5847,
      "End": 5848,
      "insula": 5849,
      "supply": 5850,
      "Juan": 5851,
      "USA": 5852,
      "kills": 5853,
      "1939": 5854,
      "facilities": 5855,
      "composition": 5856,
      "Entertainment": 5857,
      "Oxford": 5858,
      "Athlet": 5859,
      "Festival": 5860,
      "Lie": 5861,
      "Revolution": 5862,
      "UN": 5863,
      "Vill": 5864,
      "cited": 5865,
      "cake": 5866,
      "eter": 5867,
      "ni": 5868,
      "nur": 5869,
      "rine": 5870,
      "task": 5871,
      "ws": 5872,
      "thur": 5873,
      "stages": 5874,
      "itan": 5875,
      "heard": 5876,
      "udd": 5877,
      "contributed": 5878,
      "prefer": 5879,
      "Arthur": 5880,
      "1942": 5881,
      "missions": 5882,
      "reflect": 5883,
      "improve": 5884,
      "ifying": 5885,
      "executive": 5886,
      "Studios": 5887,
      "shaped": 5888,
      "degree": 5889,
      "Gordon": 5890,
      "98": 5891,
      "Aer": 5892,
      "Chel": 5893,
      "NL": 5894,
      "NBA": 5895,
      "Ron": 5896,
      "Rail": 5897,
      "mut": 5898,
      "sens": 5899,
      "ange": 5900,
      "rose": 5901,
      "iments": 5902,
      "unte": 5903,
      "rian": 5904,
      "1918": 5905,
      "moves": 5906,
      "Ind": 5907,
      "udes": 5908,
      "coal": 5909,
      "anny": 5910,
      "myth": 5911,
      "capable": 5912,
      "heads": 5913,
      "opera": 5914,
      "Coast": 5915,
      "effective": 5916,
      "Williams": 5917,
      "Philip": 5918,
      "entirely": 5919,
      "animals": 5920,
      "improved": 5921,
      "subsequent": 5922,
      "silver": 5923,
      "1950s": 5924,
      "Martin": 5925,
      "beyond": 5926,
      "Crazy": 5927,
      "Turner": 5928,
      "Between": 5929,
      "utenant": 5930,
      "Premier": 5931,
      "fictional": 5932,
      "54": 5933,
      "700": 5934,
      "Fox": 5935,
      "Gil": 5936,
      "Mario": 5937,
      "Nat": 5938,
      "Rel": 5939,
      "bass": 5940,
      "crop": 5941,
      "dog": 5942,
      "egg": 5943,
      "sion": 5944,
      "sul": 5945,
      "sort": 5946,
      "sail": 5947,
      "stro": 5948,
      "acu": 5949,
      "cher": 5950,
      "contest": 5951,
      "ully": 5952,
      "notable": 5953,
      "Stone": 5954,
      "worship": 5955,
      "recently": 5956,
      "Alli": 5957,
      "ropium": 5958,
      "medical": 5959,
      "12th": 5960,
      "1968": 5961,
      "1969": 5962,
      "gives": 5963,
      "Boise": 5964,
      "Muslim": 5965,
      "finding": 5966,
      "historic": 5967,
      "floor": 5968,
      "gradually": 5969,
      "responded": 5970,
      "Daniel": 5971,
      "Turk": 5972,
      "thesis": 5973,
      "Today": 5974,
      "Lewis": 5975,
      "kilometres": 5976,
      "Boston": 5977,
      "Bor": 5978,
      "Band": 5979,
      "Crown": 5980,
      "Hell": 5981,
      "IV": 5982,
      "Jain": 5983,
      "Kang": 5984,
      "WA": 5985,
      "lit": 5986,
      "ancy": 5987,
      "eda": 5988,
      "atom": 5989,
      "stable": 5990,
      "isy": 5991,
      "amy": 5992,
      "trou": 5993,
      "auto": 5994,
      "presents": 5995,
      "disc": 5996,
      "secondary": 5997,
      "publish": 5998,
      "mush": 5999,
      "headed": 6000,
      "1975": 6001,
      "Bridge": 6002,
      "dram": 6003,
      "rising": 6004,
      "incident": 6005,
      "People": 6006,
      "finds": 6007,
      "programs": 6008,
      "Magazine": 6009,
      "System": 6010,
      "Russian": 6011,
      "challeng": 6012,
      "expanded": 6013,
      "ánh": 6014,
      "Democr": 6015,
      "Dar": 6016,
      "Fall": 6017,
      "Rod": 6018,
      "Upon": 6019,
      "bility": 6020,
      "mate": 6021,
      "rac": 6022,
      "sed": 6023,
      "items": 6024,
      "hem": 6025,
      "acres": 6026,
      "acher": 6027,
      "adapt": 6028,
      "etic": 6029,
      "negot": 6030,
      "perial": 6031,
      "display": 6032,
      "weet": 6033,
      "ansas": 6034,
      "centuries": 6035,
      "flag": 6036,
      "Arm": 6037,
      "innings": 6038,
      "rossing": 6039,
      "engaged": 6040,
      "1965": 6041,
      "1974": 6042,
      "southwest": 6043,
      "classified": 6044,
      "campus": 6045,
      "stones": 6046,
      "faces": 6047,
      "Evita": 6048,
      "treatment": 6049,
      "possibility": 6050,
      "micro": 6051,
      "faith": 6052,
      "policy": 6053,
      "exclus": 6054,
      "Nichol": 6055,
      "61": 6056,
      "AR": 6057,
      "Cub": 6058,
      "DS": 6059,
      "Ru": 6060,
      "Raf": 6061,
      "Will": 6062,
      "daily": 6063,
      "eas": 6064,
      "naval": 6065,
      "rab": 6066,
      "inf": 6067,
      "enic": 6068,
      "oul": 6069,
      "sections": 6070,
      "lywood": 6071,
      "neck": 6072,
      "lide": 6073,
      "aste": 6074,
      "ublin": 6075,
      "setting": 6076,
      "arib": 6077,
      "paralle": 6078,
      "decades": 6079,
      "hydro": 6080,
      "trip": 6081,
      "deaths": 6082,
      "Liu": 6083,
      "criticism": 6084,
      "losses": 6085,
      "MacLe": 6086,
      "Commander": 6087,
      "independence": 6088,
      "slowly": 6089,
      "Khánh": 6090,
      "mushroom": 6091,
      "800": 6092,
      "Avenue": 6093,
      "Hun": 6094,
      "Jurch": 6095,
      "Ken": 6096,
      "Les": 6097,
      "Row": 6098,
      "Rome": 6099,
      "nes": 6100,
      "nell": 6101,
      "rates": 6102,
      "von": 6103,
      "atus": 6104,
      "icial": 6105,
      "pty": 6106,
      "izations": 6107,
      "goes": 6108,
      "leaders": 6109,
      "didn": 6110,
      "Columb": 6111,
      "personnel": 6112,
      "sentence": 6113,
      "Project": 6114,
      "Songs": 6115,
      "araj": 6116,
      "layer": 6117,
      "Belg": 6118,
      "Jamal": 6119,
      "purchased": 6120,
      "59": 6121,
      "85": 6122,
      "Bru": 6123,
      "Broad": 6124,
      "Dublin": 6125,
      "Gab": 6126,
      "Iguan": 6127,
      "Ray": 6128,
      "Sa": 6129,
      "categ": 6130,
      "dance": 6131,
      "fresh": 6132,
      "sist": 6133,
      "til": 6134,
      "table": 6135,
      "yson": 6136,
      "editor": 6137,
      "stret": 6138,
      "esc": 6139,
      "accompl": 6140,
      "ads": 6141,
      "aded": 6142,
      "begun": 6143,
      "concrete": 6144,
      "ctors": 6145,
      "usal": 6146,
      "outs": 6147,
      "acted": 6148,
      "nothing": 6149,
      "cool": 6150,
      "symp": 6151,
      "Leon": 6152,
      "1946": 6153,
      "ashion": 6154,
      "worldwide": 6155,
      "drawn": 6156,
      "importance": 6157,
      "declined": 6158,
      "purpose": 6159,
      "technology": 6160,
      "Science": 6161,
      "reasons": 6162,
      "Brian": 6163,
      "briefly": 6164,
      "Tennyson": 6165,
      "Temple": 6166,
      "Throughout": 6167,
      "District": 6168,
      "protagon": 6169,
      "Governor": 6170,
      "Hal": 6171,
      "Jud": 6172,
      "MTV": 6173,
      "cance": 6174,
      "fal": 6175,
      "hired": 6176,
      "iers": 6177,
      "nie": 6178,
      "wart": 6179,
      "inspir": 6180,
      "anth": 6181,
      "remix": 6182,
      "roof": 6183,
      "adap": 6184,
      "amber": 6185,
      "conve": 6186,
      "agent": 6187,
      "plum": 6188,
      "modi": 6189,
      "Chart": 6190,
      "desc": 6191,
      "Also": 6192,
      "Arts": 6193,
      "adding": 6194,
      "distingu": 6195,
      "trait": 6196,
      "Liber": 6197,
      "skin": 6198,
      "Team": 6199,
      "frame": 6200,
      "glass": 6201,
      "Simone": 6202,
      "launch": 6203,
      "committee": 6204,
      "escape": 6205,
      "negoti": 6206,
      "Bart": 6207,
      "Bern": 6208,
      "Mel": 6209,
      "Master": 6210,
      "fare": 6211,
      "gro": 6212,
      "ju": 6213,
      "lings": 6214,
      "oz": 6215,
      "tin": 6216,
      "wid": 6217,
      "ingly": 6218,
      "seas": 6219,
      "oldest": 6220,
      "rif": 6221,
      "1919": 6222,
      "plain": 6223,
      "truth": 6224,
      "Chains": 6225,
      "viewed": 6226,
      "16th": 6227,
      "foundation": 6228,
      "arrival": 6229,
      "longest": 6230,
      "decade": 6231,
      "1966": 6232,
      "Maria": 6233,
      "1952": 6234,
      "1936": 6235,
      "clubs": 6236,
      "tells": 6237,
      "senior": 6238,
      "violence": 6239,
      "billion": 6240,
      "commission": 6241,
      "chapter": 6242,
      "participated": 6243,
      "championship": 6244,
      "Brook": 6245,
      "regarding": 6246,
      "enjoyed": 6247,
      "crowd": 6248,
      "Area": 6249,
      "Family": 6250,
      "Production": 6251,
      "paintings": 6252,
      "witness": 6253,
      "Development": 6254,
      "accompanied": 6255,
      "MacLeod": 6256,
      "110": 6257,
      "52": 6258,
      "Bos": 6259,
      "Dream": 6260,
      "EC": 6261,
      "Five": 6262,
      "Ulys": 6263,
      "Wy": 6264,
      "Wall": 6265,
      "dating": 6266,
      "fix": 6267,
      "nic": 6268,
      "pha": 6269,
      "san": 6270,
      "tack": 6271,
      "wise": 6272,
      "wides": 6273,
      "ía": 6274,
      "ān": 6275,
      "thor": 6276,
      "reput": 6277,
      "ici": 6278,
      "astron": 6279,
      "fee": 6280,
      "aug": 6281,
      "spons": 6282,
      "pread": 6283,
      "roughly": 6284,
      "substant": 6285,
      "populations": 6286,
      "Rox": 6287,
      "developing": 6288,
      "passeng": 6289,
      "grapher": 6290,
      "lasted": 6291,
      "Admir": 6292,
      "Board": 6293,
      "fellow": 6294,
      "holding": 6295,
      "existence": 6296,
      "AAF": 6297,
      "credited": 6298,
      "Summer": 6299,
      "Ulysses": 6300,
      "BS": 6301,
      "Gar": 6302,
      "Jay": 6303,
      "Kr": 6304,
      "NS": 6305,
      "Ode": 6306,
      "Test": 6307,
      "bie": 6308,
      "ech": 6309,
      "ito": 6310,
      "knot": 6311,
      "mine": 6312,
      "py": 6313,
      "intr": 6314,
      "inity": 6315,
      "thetic": 6316,
      "stal": 6317,
      "advis": 6318,
      "decre": 6319,
      "irt": 6320,
      "univers": 6321,
      "comic": 6322,
      "Instead": 6323,
      "aked": 6324,
      "ava": 6325,
      "spell": 6326,
      "Albert": 6327,
      "anned": 6328,
      "fles": 6329,
      "Commit": 6330,
      "consists": 6331,
      "calls": 6332,
      "choice": 6333,
      "transit": 6334,
      "1973": 6335,
      "dominated": 6336,
      "priest": 6337,
      "combination": 6338,
      "existing": 6339,
      "accident": 6340,
      "learned": 6341,
      "archaeological": 6342,
      "performing": 6343,
      "applied": 6344,
      "poetry": 6345,
      "Radio": 6346,
      "symbol": 6347,
      "athletes": 6348,
      "remn": 6349,
      "Anthony": 6350,
      "Turkish": 6351,
      "Iguanodon": 6352,
      "Bond": 6353,
      "Bishop": 6354,
      "Carib": 6355,
      "Gre": 6356,
      "IG": 6357,
      "Lin": 6358,
      "OT": 6359,
      "Sap": 6360,
      "basket": 6361,
      "cab": 6362,
      "hope": 6363,
      "iqu": 6364,
      "ji": 6365,
      "vens": 6366,
      "repl": 6367,
      "seat": 6368,
      "bean": 6369,
      "Theatre": 6370,
      "iring": 6371,
      "assass": 6372,
      "oking": 6373,
      "Anonymous": 6374,
      "finish": 6375,
      "pregn": 6376,
      "visible": 6377,
      "filming": 6378,
      "submar": 6379,
      "1967": 6380,
      "Marl": 6381,
      "aurus": 6382,
      "college": 6383,
      "closely": 6384,
      "competitions": 6385,
      "Braz": 6386,
      "association": 6387,
      "habitat": 6388,
      "weakened": 6389,
      "Hornung": 6390,
      "62": 6391,
      "77": 6392,
      "Aston": 6393,
      "AML": 6394,
      "Gra": 6395,
      "Hor": 6396,
      "bin": 6397,
      "bone": 6398,
      "uct": 6399,
      "uff": 6400,
      "wr": 6401,
      "aton": 6402,
      "agle": 6403,
      "oty": 6404,
      "1914": 6405,
      "mod": 6406,
      "iston": 6407,
      "neither": 6408,
      "exer": 6409,
      "perhaps": 6410,
      "derived": 6411,
      "evo": 6412,
      "forming": 6413,
      "ogy": 6414,
      "appeal": 6415,
      "protection": 6416,
      "battalions": 6417,
      "Life": 6418,
      "provides": 6419,
      "greatly": 6420,
      "Mountain": 6421,
      "invited": 6422,
      "electric": 6423,
      "motion": 6424,
      "painting": 6425,
      "reinforce": 6426,
      "administration": 6427,
      "1930s": 6428,
      "pilot": 6429,
      "details": 6430,
      "opportunity": 6431,
      "ceremony": 6432,
      "occasionally": 6433,
      "81": 6434,
      "Asia": 6435,
      "Bell": 6436,
      "Dota": 6437,
      "Es": 6438,
      "ERA": 6439,
      "Hon": 6440,
      "Hard": 6441,
      "Kil": 6442,
      "Oh": 6443,
      "Run": 6444,
      "bought": 6445,
      "cit": 6446,
      "gus": 6447,
      "sight": 6448,
      "tz": 6449,
      "tend": 6450,
      "anes": 6451,
      "eness": 6452,
      "encounter": 6453,
      "stic": 6454,
      "acid": 6455,
      "ette": 6456,
      "abo": 6457,
      "trave": 6458,
      "mann": 6459,
      "bling": 6460,
      "speaking": 6461,
      "athers": 6462,
      "eleven": 6463,
      "supposed": 6464,
      "locations": 6465,
      "steam": 6466,
      "receiving": 6467,
      "district": 6468,
      "protected": 6469,
      "towns": 6470,
      "storyline": 6471,
      "churches": 6472,
      "glas": 6473,
      "expans": 6474,
      "typical": 6475,
      "technique": 6476,
      "massive": 6477,
      "focused": 6478,
      "Archae": 6479,
      "Douglas": 6480,
      "vehicles": 6481,
      "dissipated": 6482,
      "Chelsea": 6483,
      "Caribbean": 6484,
      "Dom": 6485,
      "Low": 6486,
      "Top": 6487,
      "VN": 6488,
      "Vol": 6489,
      "Ye": 6490,
      "fuel": 6491,
      "kins": 6492,
      "page": 6493,
      "ua": 6494,
      "revi": 6495,
      "islands": 6496,
      "itors": 6497,
      "rol": 6498,
      "accur": 6499,
      "entially": 6500,
      "channel": 6501,
      "urs": 6502,
      "uration": 6503,
      "demo": 6504,
      "shop": 6505,
      "twel": 6506,
      "dub": 6507,
      "intend": 6508,
      "anything": 6509,
      "ountain": 6510,
      "What": 6511,
      "capac": 6512,
      "appearing": 6513,
      "1945": 6514,
      "1971": 6515,
      "receive": 6516,
      "drama": 6517,
      "funding": 6518,
      "missing": 6519,
      "Perry": 6520,
      "glades": 6521,
      "Maeda": 6522,
      "looked": 6523,
      "About": 6524,
      "survived": 6525,
      "stopped": 6526,
      "Cardinal": 6527,
      "biography": 6528,
      "Georgian": 6529,
      "chorus": 6530,
      "Freder": 6531,
      "Constantine": 6532,
      "Hibari": 6533,
      "Lieutenant": 6534,
      "widespread": 6535,
      "250": 6536,
      "79": 6537,
      "89": 6538,
      "Age": 6539,
      "CC": 6540,
      "Cha": 6541,
      "Hindu": 6542,
      "Jun": 6543,
      "Kat": 6544,
      "Mun": 6545,
      "Qedar": 6546,
      "Ré": 6547,
      "Rio": 6548,
      "card": 6549,
      "safety": 6550,
      "wel": 6551,
      "atures": 6552,
      "stances": 6553,
      "aced": 6554,
      "ilton": 6555,
      "ading": 6556,
      "beth": 6557,
      "why": 6558,
      "converted": 6559,
      "shared": 6560,
      "ighter": 6561,
      "compon": 6562,
      "evacu": 6563,
      "brary": 6564,
      "ampions": 6565,
      "rows": 6566,
      "1982": 6567,
      "trying": 6568,
      "Gram": 6569,
      "solid": 6570,
      "authors": 6571,
      "Romani": 6572,
      "Simon": 6573,
      "settlers": 6574,
      "ruli": 6575,
      "session": 6576,
      "cruiser": 6577,
      "doub": 6578,
      "flights": 6579,
      "Golden": 6580,
      "acquired": 6581,
      "Brien": 6582,
      "convoy": 6583,
      "powers": 6584,
      "digital": 6585,
      "secure": 6586,
      "repeated": 6587,
      "Fantasy": 6588,
      "71": 6589,
      "AD": 6590,
      "Ash": 6591,
      "DNA": 6592,
      "Gang": 6593,
      "Jones": 6594,
      "LI": 6595,
      "Mod": 6596,
      "Pers": 6597,
      "Sound": 6598,
      "ias": 6599,
      "ko": 6600,
      "ography": 6601,
      "yl": 6602,
      "infr": 6603,
      "ero": 6604,
      "arranged": 6605,
      "ented": 6606,
      "ador": 6607,
      "ola": 6608,
      "1916": 6609,
      "1913": 6610,
      "iful": 6611,
      "Stadium": 6612,
      "pton": 6613,
      "spacing": 6614,
      "issance": 6615,
      "unting": 6616,
      "1980": 6617,
      "succeeded": 6618,
      "1976": 6619,
      "depicted": 6620,
      "label": 6621,
      "willing": 6622,
      "controll": 6623,
      "1956": 6624,
      "Moz": 6625,
      "graded": 6626,
      "baseball": 6627,
      "Holy": 6628,
      "planning": 6629,
      "watched": 6630,
      "happy": 6631,
      "experiment": 6632,
      "Oslo": 6633,
      "Venus": 6634,
      "routes": 6635,
      "opinion": 6636,
      "instrument": 6637,
      "Haiti": 6638,
      "revolution": 6639,
      "permanent": 6640,
      "Shortly": 6641,
      "atmosphere": 6642,
      "wedding": 6643,
      "Brazil": 6644,
      "DA": 6645,
      "Ele": 6646,
      "Fel": 6647,
      "Mul": 6648,
      "Tel": 6649,
      "dry": 6650,
      "knew": 6651,
      "march": 6652,
      "wins": 6653,
      "eratops": 6654,
      "sta": 6655,
      "bels": 6656,
      "iday": 6657,
      "apers": 6658,
      "uma": 6659,
      "ardo": 6660,
      "creator": 6661,
      "brand": 6662,
      "charter": 6663,
      "10th": 6664,
      "ression": 6665,
      "1943": 6666,
      "controvers": 6667,
      "reality": 6668,
      "penalty": 6669,
      "providing": 6670,
      "decline": 6671,
      "Similar": 6672,
      "Somal": 6673,
      "defined": 6674,
      "earthquake": 6675,
      "Secretary": 6676,
      "Allied": 6677,
      "69": 6678,
      "72": 6679,
      "Dur": 6680,
      "Homer": 6681,
      "NBC": 6682,
      "Patt": 6683,
      "Rangers": 6684,
      "Snow": 6685,
      "cos": 6686,
      "fold": 6687,
      "franch": 6688,
      "jump": 6689,
      "psy": 6690,
      "tied": 6691,
      "vac": 6692,
      "ani": 6693,
      "store": 6694,
      "assem": 6695,
      "entry": 6696,
      "idd": 6697,
      "elli": 6698,
      "abour": 6699,
      "exact": 6700,
      "quite": 6701,
      "Chronic": 6702,
      "attached": 6703,
      "renamed": 6704,
      "airport": 6705,
      "download": 6706,
      "ceratops": 6707,
      "leads": 6708,
      "1963": 6709,
      "protect": 6710,
      "getting": 6711,
      "breaking": 6712,
      "Stevens": 6713,
      "turning": 6714,
      "explos": 6715,
      "magn": 6716,
      "changing": 6717,
      "introduction": 6718,
      "technical": 6719,
      "prede": 6720,
      "patron": 6721,
      "separated": 6722,
      "Morrison": 6723,
      "satis": 6724,
      "establishment": 6725,
      "indicate": 6726,
      "Gully": 6727,
      "Everglades": 6728,
      "distinct": 6729,
      "thousands": 6730,
      "delivered": 6731,
      "supplies": 6732,
      "Additionally": 6733,
      "IGN": 6734,
      "UTC": 6735,
      "Wind": 6736,
      "dict": 6737,
      "ez": 6738,
      "gé": 6739,
      "rural": 6740,
      "inte": 6741,
      "institut": 6742,
      "ona": 6743,
      "isers": 6744,
      "constant": 6745,
      "oting": 6746,
      "opposition": 6747,
      "sud": 6748,
      "emperor": 6749,
      "express": 6750,
      "affect": 6751,
      "Stud": 6752,
      "attle": 6753,
      "recru": 6754,
      "awn": 6755,
      "phone": 6756,
      "regime": 6757,
      "issip": 6758,
      "remainder": 6759,
      "Australians": 6760,
      "11th": 6761,
      "camps": 6762,
      "commanded": 6763,
      "correspond": 6764,
      "Mississip": 6765,
      "Walter": 6766,
      "ruled": 6767,
      "Sunday": 6768,
      "consisting": 6769,
      "eyes": 6770,
      "certified": 6771,
      "assistance": 6772,
      "surviv": 6773,
      "Hollywood": 6774,
      "Office": 6775,
      "teaching": 6776,
      "Bradford": 6777,
      "Truj": 6778,
      "Alexander": 6779,
      "rhyth": 6780,
      "Friends": 6781,
      "achieve": 6782,
      "Columbia": 6783,
      "Committee": 6784,
      "Kel": 6785,
      "Native": 6786,
      "Pul": 6787,
      "Ridge": 6788,
      "Sb": 6789,
      "Tal": 6790,
      "aud": 6791,
      "baby": 6792,
      "gall": 6793,
      "jac": 6794,
      "races": 6795,
      "tall": 6796,
      "ét": 6797,
      "enge": 6798,
      "leaves": 6799,
      "entering": 6800,
      "pled": 6801,
      "ameter": 6802,
      "mention": 6803,
      "earch": 6804,
      "ivity": 6805,
      "formal": 6806,
      "kee": 6807,
      "oked": 6808,
      "noisy": 6809,
      "Alan": 6810,
      "producing": 6811,
      "surrender": 6812,
      "1978": 6813,
      "Marine": 6814,
      "valley": 6815,
      "sequences": 6816,
      "1953": 6817,
      "joint": 6818,
      "turns": 6819,
      "references": 6820,
      "occurs": 6821,
      "Montana": 6822,
      "studied": 6823,
      "regularly": 6824,
      "Maryland": 6825,
      "economy": 6826,
      "Croatian": 6827,
      "Critical": 6828,
      "Director": 6829,
      "Trujillo": 6830,
      "112": 6831,
      "CO": 6832,
      "Ko": 6833,
      "Lenn": 6834,
      "cry": 6835,
      "drug": 6836,
      "fashion": 6837,
      "hat": 6838,
      "mere": 6839,
      "pse": 6840,
      "puzz": 6841,
      "tip": 6842,
      "tie": 6843,
      "ano": 6844,
      "replace": 6845,
      "icon": 6846,
      "lease": 6847,
      "deck": 6848,
      "irs": 6849,
      "immig": 6850,
      "versi": 6851,
      "ceived": 6852,
      "agen": 6853,
      "agues": 6854,
      "ester": 6855,
      "itsune": 6856,
      "evil": 6857,
      "Anton": 6858,
      "finishing": 6859,
      "prey": 6860,
      "interior": 6861,
      "shel": 6862,
      "forests": 6863,
      "monarch": 6864,
      "survey": 6865,
      "distribution": 6866,
      "successor": 6867,
      "denied": 6868,
      "Charlie": 6869,
      "interested": 6870,
      "circum": 6871,
      "scholars": 6872,
      "methods": 6873,
      "shooting": 6874,
      "portrayed": 6875,
      "safe": 6876,
      "Engineer": 6877,
      "intelligence": 6878,
      "adapted": 6879,
      "reputation": 6880,
      "Roxas": 6881,
      "Mississippi": 6882,
      "58": 6883,
      "Edu": 6884,
      "Less": 6885,
      "Pur": 6886,
      "Sor": 6887,
      "Vis": 6888,
      "bay": 6889,
      "gone": 6890,
      "hun": 6891,
      "pa": 6892,
      "zone": 6893,
      "ala": 6894,
      "arg": 6895,
      "acre": 6896,
      "convict": 6897,
      "agents": 6898,
      "1915": 6899,
      "ophy": 6900,
      "aka": 6901,
      "worst": 6902,
      "attributed": 6903,
      "offense": 6904,
      "dismissed": 6905,
      "brid": 6906,
      "gameplay": 6907,
      "Recording": 6908,
      "charges": 6909,
      "ifications": 6910,
      "suppor": 6911,
      "statement": 6912,
      "Plunk": 6913,
      "characteristics": 6914,
      "crime": 6915,
      "Stefan": 6916,
      "strip": 6917,
      "window": 6918,
      "Within": 6919,
      "politics": 6920,
      "seeing": 6921,
      "motor": 6922,
      "recognition": 6923,
      "Activision": 6924,
      "calcul": 6925,
      "chapel": 6926,
      "Hugh": 6927,
      "Samuel": 6928,
      "Howard": 6929,
      "pattern": 6930,
      "battleship": 6931,
      "Daily": 6932,
      "Jos": 6933,
      "Mit": 6934,
      "NO": 6935,
      "Por": 6936,
      "crown": 6937,
      "dock": 6938,
      "pound": 6939,
      "sle": 6940,
      "squadron": 6941,
      "vary": 6942,
      "anz": 6943,
      "remo": 6944,
      "tos": 6945,
      "ione": 6946,
      "terior": 6947,
      "agree": 6948,
      "resour": 6949,
      "noting": 6950,
      "sie": 6951,
      "monument": 6952,
      "minister": 6953,
      "retire": 6954,
      "soil": 6955,
      "ologists": 6956,
      "Marsh": 6957,
      "tribes": 6958,
      "appropri": 6959,
      "classes": 6960,
      "Stephen": 6961,
      "basin": 6962,
      "Nether": 6963,
      "novels": 6964,
      "charts": 6965,
      "alternative": 6966,
      "bella": 6967,
      "discussed": 6968,
      "Calvert": 6969,
      "dollars": 6970,
      "Isabella": 6971,
      "custom": 6972,
      "knots": 6973,
      "capacity": 6974,
      "Cru": 6975,
      "Danny": 6976,
      "Net": 6977,
      "Pope": 6978,
      "Sav": 6979,
      "Saraj": 6980,
      "Yan": 6981,
      "Yank": 6982,
      "cinem": 6983,
      "nick": 6984,
      "lets": 6985,
      "sector": 6986,
      "aggress": 6987,
      "rie": 6988,
      "1917": 6989,
      "plants": 6990,
      "isted": 6991,
      "lik": 6992,
      "emotional": 6993,
      "exception": 6994,
      "fear": 6995,
      "owner": 6996,
      "eving": 6997,
      "partial": 6998,
      "offers": 6999,
      "angerous": 7000,
      "pointed": 7001,
      "describing": 7002,
      "1948": 7003,
      "warm": 7004,
      "cycle": 7005,
      "legs": 7006,
      "generation": 7007,
      "younger": 7008,
      "medieval": 7009,
      "coastal": 7010,
      "rules": 7011,
      "Strand": 7012,
      "accounts": 7013,
      "Jersey": 7014,
      "journey": 7015,
      "divine": 7016,
      "bringing": 7017,
      "Industry": 7018,
      "Weekly": 7019,
      "Lisa": 7020,
      "industrial": 7021,
      "predecess": 7022,
      "Sarajevo": 7023,
      "57": 7024,
      "Here": 7025,
      "Jif": 7026,
      "Kn": 7027,
      "Ra": 7028,
      "Sk": 7029,
      "bond": 7030,
      "cation": 7031,
      "caught": 7032,
      "fi": 7033,
      "gor": 7034,
      "ninth": 7035,
      "sters": 7036,
      "leuk": 7037,
      "chi": 7038,
      "ateur": 7039,
      "expect": 7040,
      "ockey": 7041,
      "manner": 7042,
      "fection": 7043,
      "firing": 7044,
      "offman": 7045,
      "desire": 7046,
      "Austri": 7047,
      "sons": 7048,
      "someone": 7049,
      "releg": 7050,
      "Lee": 7051,
      "perior": 7052,
      "erald": 7053,
      "1979": 7054,
      "1951": 7055,
      "facing": 7056,
      "everything": 7057,
      "basic": 7058,
      "rooms": 7059,
      "difficulty": 7060,
      "colonial": 7061,
      "rarely": 7062,
      "considerable": 7063,
      "discovery": 7064,
      "Victoria": 7065,
      "mobile": 7066,
      "Destiny": 7067,
      "article": 7068,
      "Eliza": 7069,
      "restaurant": 7070,
      "Frederick": 7071,
      "Yankovic": 7072,
      "88": 7073,
      "Cel": 7074,
      "Det": 7075,
      "Fair": 7076,
      "IS": 7077,
      "PC": 7078,
      "Press": 7079,
      "Sand": 7080,
      "Squ": 7081,
      "dal": 7082,
      "eff": 7083,
      "ja": 7084,
      "taught": 7085,
      "wich": 7086,
      "replacement": 7087,
      "anda": 7088,
      "itage": 7089,
      "itled": 7090,
      "amin": 7091,
      "deed": 7092,
      "veget": 7093,
      "igades": 7094,
      "aga": 7095,
      "teacher": 7096,
      "ables": 7097,
      "pete": 7098,
      "Init": 7099,
      "liked": 7100,
      "embark": 7101,
      "landed": 7102,
      "sized": 7103,
      "sche": 7104,
      "ultane": 7105,
      "Around": 7106,
      "Review": 7107,
      "norm": 7108,
      "Joe": 7109,
      "hys": 7110,
      "1961": 7111,
      "volunte": 7112,
      "carbon": 7113,
      "evening": 7114,
      "1954": 7115,
      "Order": 7116,
      "Organ": 7117,
      "wooden": 7118,
      "involvement": 7119,
      "relationships": 7120,
      "munic": 7121,
      "Somali": 7122,
      "hotel": 7123,
      "nomination": 7124,
      "painted": 7125,
      "specifically": 7126,
      "Research": 7127,
      "Transport": 7128,
      "Castle": 7129,
      "Television": 7130,
      "thirty": 7131,
      "opponents": 7132,
      "Clarkson": 7133,
      "Rolling": 7134,
      "Mozamb": 7135,
      "sudden": 7136,
      "Cad": 7137,
      "Fame": 7138,
      "Spring": 7139,
      "Sports": 7140,
      "Santa": 7141,
      "jum": 7142,
      "jazz": 7143,
      "mart": 7144,
      "squad": 7145,
      "wine": 7146,
      "ingale": 7147,
      "cler": 7148,
      "asters": 7149,
      "assess": 7150,
      "ureau": 7151,
      "intersection": 7152,
      "cript": 7153,
      "13th": 7154,
      "inking": 7155,
      "fungus": 7156,
      "Wilde": 7157,
      "approved": 7158,
      "believes": 7159,
      "1937": 7160,
      "vote": 7161,
      "communities": 7162,
      "poems": 7163,
      "existed": 7164,
      "Duke": 7165,
      "Jerusal": 7166,
      "Singles": 7167,
      "moral": 7168,
      "secured": 7169,
      "emerged": 7170,
      "absor": 7171,
      "picked": 7172,
      "split": 7173,
      "Colonel": 7174,
      "ranean": 7175,
      "Adams": 7176,
      "neighbor": 7177,
      "recommended": 7178,
      "Francisco": 7179,
      "Simpsons": 7180,
      "Bono": 7181,
      "Skye": 7182,
      "turret": 7183,
      "Modern": 7184,
      "controversy": 7185,
      "Jifna": 7186,
      "Jerusalem": 7187,
      "Cory": 7188,
      "Ga": 7189,
      "Loc": 7190,
      "Nick": 7191,
      "Person": 7192,
      "Power": 7193,
      "Rif": 7194,
      "WW": 7195,
      "Wars": 7196,
      "cular": 7197,
      "mad": 7198,
      "soft": 7199,
      "uous": 7200,
      "hear": 7201,
      "illi": 7202,
      "seg": 7203,
      "tery": 7204,
      "concer": 7205,
      "agu": 7206,
      "apart": 7207,
      "plane": 7208,
      "strateg": 7209,
      "scape": 7210,
      "intention": 7211,
      "poses": 7212,
      "genre": 7213,
      "whereas": 7214,
      "Norman": 7215,
      "decis": 7216,
      "leadership": 7217,
      "signing": 7218,
      "Carter": 7219,
      "chemical": 7220,
      "Plot": 7221,
      "standards": 7222,
      "organizations": 7223,
      "1955": 7224,
      "drawing": 7225,
      "Track": 7226,
      "sufficient": 7227,
      "Hamilton": 7228,
      "connection": 7229,
      "Olympics": 7230,
      "concerns": 7231,
      "Military": 7232,
      "Human": 7233,
      "specimens": 7234,
      "extremely": 7235,
      "incorporated": 7236,
      "principal": 7237,
      "Independent": 7238,
      "Argentina": 7239,
      "wrong": 7240,
      "63": 7241,
      "Bron": 7242,
      "MO": 7243,
      "Mot": 7244,
      "Pass": 7245,
      "Ut": 7246,
      "Wim": 7247,
      "dess": 7248,
      "fine": 7249,
      "iet": 7250,
      "ike": 7251,
      "lu": 7252,
      "none": 7253,
      "pine": 7254,
      "rus": 7255,
      "ule": 7256,
      "winner": 7257,
      "youth": 7258,
      "incess": 7259,
      "inhabit": 7260,
      "theat": 7261,
      "aya": 7262,
      "conference": 7263,
      "resent": 7264,
      "etts": 7265,
      "1900": 7266,
      "istry": 7267,
      "shark": 7268,
      "cles": 7269,
      "divisions": 7270,
      "diameter": 7271,
      "recre": 7272,
      "parties": 7273,
      "speech": 7274,
      "airs": 7275,
      "indig": 7276,
      "indicated": 7277,
      "Beach": 7278,
      "showing": 7279,
      "covering": 7280,
      "Forces": 7281,
      "distributed": 7282,
      "tries": 7283,
      "xture": 7284,
      "placing": 7285,
      "Carl": 7286,
      "iversary": 7287,
      "sequently": 7288,
      "1958": 7289,
      "Prime": 7290,
      "alien": 7291,
      "expensive": 7292,
      "Key": 7293,
      "settled": 7294,
      "approached": 7295,
      "teeth": 7296,
      "threatened": 7297,
      "treaty": 7298,
      "surrounded": 7299,
      "alogue": 7300,
      "europium": 7301,
      "demol": 7302,
      "Banai": 7303,
      "Writing": 7304,
      "Ryan": 7305,
      "integr": 7306,
      "3D": 7307,
      "Ball": 7308,
      "DC": 7309,
      "Ell": 7310,
      "Iron": 7311,
      "Jere": 7312,
      "Pine": 7313,
      "Rom": 7314,
      "Wi": 7315,
      "Yo": 7316,
      "bats": 7317,
      "gate": 7318,
      "horn": 7319,
      "lav": 7320,
      "ridge": 7321,
      "tone": 7322,
      "wet": 7323,
      "wants": 7324,
      "inland": 7325,
      "edom": 7326,
      "itals": 7327,
      "admitted": 7328,
      "sects": 7329,
      "aments": 7330,
      "unusual": 7331,
      "teor": 7332,
      "disci": 7333,
      "Ant": 7334,
      "oba": 7335,
      "muscar": 7336,
      "decor": 7337,
      "1949": 7338,
      "1977": 7339,
      "historians": 7340,
      "Point": 7341,
      "crossed": 7342,
      "railway": 7343,
      "Depression": 7344,
      "immediate": 7345,
      "ratings": 7346,
      "favorite": 7347,
      "hoped": 7348,
      "department": 7349,
      "documentary": 7350,
      "Roger": 7351,
      "expedition": 7352,
      "isolated": 7353,
      "citiz": 7354,
      "expansion": 7355,
      "institutions": 7356,
      "Lennon": 7357,
      "93": 7358,
      "AP": 7359,
      "Bi": 7360,
      "Base": 7361,
      "CP": 7362,
      "Fern": 7363,
      "Fras": 7364,
      "Goffman": 7365,
      "Jac": 7366,
      "Rap": 7367,
      "Ton": 7368,
      "cli": 7369,
      "dim": 7370,
      "ocean": 7371,
      "ívar": 7372,
      "thy": 7373,
      "orous": 7374,
      "stell": 7375,
      "heli": 7376,
      "adjac": 7377,
      "imet": 7378,
      "usad": 7379,
      "romantic": 7380,
      "overs": 7381,
      "assumed": 7382,
      "Story": 7383,
      "rank": 7384,
      "offs": 7385,
      "Unlike": 7386,
      "anniversary": 7387,
      "understand": 7388,
      "regional": 7389,
      "consum": 7390,
      "designation": 7391,
      "reading": 7392,
      "protests": 7393,
      "grounds": 7394,
      "Hergé": 7395,
      "listen": 7396,
      "classical": 7397,
      "sequel": 7398,
      "reviewer": 7399,
      "graphs": 7400,
      "strongly": 7401,
      "equival": 7402,
      "rapped": 7403,
      "destroyers": 7404,
      "sessions": 7405,
      "treated": 7406,
      "cruisers": 7407,
      "languages": 7408,
      "dynam": 7409,
      "engineering": 7410,
      "Territ": 7411,
      "literary": 7412,
      "Jean": 7413,
      "examples": 7414,
      "Stock": 7415,
      "watershed": 7416,
      "Janeiro": 7417,
      "Bolívar": 7418,
      "junction": 7419,
      "Rhodes": 7420,
      "message": 7421,
      "completion": 7422,
      "duties": 7423,
      "eighth": 7424,
      "protagonist": 7425,
      "Saprang": 7426,
      "Kilmer": 7427,
      "franchise": 7428,
      "AT": 7429,
      "Cop": 7430,
      "DH": 7431,
      "Fire": 7432,
      "Mand": 7433,
      "Rem": 7434,
      "Tower": 7435,
      "Wolf": 7436,
      "bigg": 7437,
      "cens": 7438,
      "governor": 7439,
      "hot": 7440,
      "kān": 7441,
      "lake": 7442,
      "mud": 7443,
      "sam": 7444,
      "tle": 7445,
      "yo": 7446,
      "zo": 7447,
      "zen": 7448,
      "erog": 7449,
      "theatre": 7450,
      "orche": 7451,
      "stab": 7452,
      "stadium": 7453,
      "illy": 7454,
      "select": 7455,
      "amond": 7456,
      "detailed": 7457,
      "owed": 7458,
      "convers": 7459,
      "apy": 7460,
      "1910": 7461,
      "plate": 7462,
      "absol": 7463,
      "shots": 7464,
      "antly": 7465,
      "Chief": 7466,
      "strate": 7467,
      "loan": 7468,
      "Hearts": 7469,
      "meets": 7470,
      "angle": 7471,
      "fled": 7472,
      "flat": 7473,
      "airline": 7474,
      "cki": 7475,
      "1983": 7476,
      "tribut": 7477,
      "Gerard": 7478,
      "Color": 7479,
      "controversi": 7480,
      "defended": 7481,
      "Guy": 7482,
      "Prov": 7483,
      "naissance": 7484,
      "BCE": 7485,
      "employe": 7486,
      "Lawton": 7487,
      "bledon": 7488,
      "Lords": 7489,
      "attracted": 7490,
      "Georgia": 7491,
      "scientific": 7492,
      "wearing": 7493,
      "specimen": 7494,
      "Burns": 7495,
      "Journal": 7496,
      "academic": 7497,
      "rescue": 7498,
      "eggs": 7499,
      "easily": 7500,
      "Square": 7501,
      "Wimbledon": 7502,
      "91": 7503,
      "Bed": 7504,
      "Sher": 7505,
      "faster": 7506,
      "hen": 7507,
      "tick": 7508,
      "vive": 7509,
      "iling": 7510,
      "chronic": 7511,
      "implement": 7512,
      "igation": 7513,
      "agas": 7514,
      "otic": 7515,
      "apped": 7516,
      "opher": 7517,
      "abol": 7518,
      "shif": 7519,
      "lift": 7520,
      "acknow": 7521,
      "haust": 7522,
      "spaces": 7523,
      "posit": 7524,
      "Third": 7525,
      "interchange": 7526,
      "elev": 7527,
      "ropol": 7528,
      "medium": 7529,
      "Attor": 7530,
      "operate": 7531,
      "valu": 7532,
      "crash": 7533,
      "starling": 7534,
      "grey": 7535,
      "armor": 7536,
      "attempting": 7537,
      "effectively": 7538,
      "correct": 7539,
      "equal": 7540,
      "terminus": 7541,
      "assistant": 7542,
      "surviving": 7543,
      "practices": 7544,
      "traveled": 7545,
      "grav": 7546,
      "territories": 7547,
      "accused": 7548,
      "Cambridge": 7549,
      "civilian": 7550,
      "Richardson": 7551,
      "blocks": 7552,
      "feeling": 7553,
      "reserve": 7554,
      "challenge": 7555,
      "encouraged": 7556,
      "agricultural": 7557,
      "inspiration": 7558,
      "Admiral": 7559,
      "Somalia": 7560,
      "adjacent": 7561,
      "Ak": 7562,
      "Ba": 7563,
      "Corn": 7564,
      "Every": 7565,
      "Elect": 7566,
      "Garc": 7567,
      "Komb": 7568,
      "Now": 7569,
      "RNA": 7570,
      "Wat": 7571,
      "cash": 7572,
      "fing": 7573,
      "foss": 7574,
      "ios": 7575,
      "nut": 7576,
      "thin": 7577,
      "ori": 7578,
      "arte": 7579,
      "isms": 7580,
      "itated": 7581,
      "accom": 7582,
      "cture": 7583,
      "apse": 7584,
      "aints": 7585,
      "abled": 7586,
      "proto": 7587,
      "emp": 7588,
      "aku": 7589,
      "astru": 7590,
      "overw": 7591,
      "ritual": 7592,
      "compounds": 7593,
      "lose": 7594,
      "formally": 7595,
      "scop": 7596,
      "intense": 7597,
      "recalled": 7598,
      "partly": 7599,
      "contribut": 7600,
      "Aniston": 7601,
      "angular": 7602,
      "knock": 7603,
      "somewhat": 7604,
      "identity": 7605,
      "storms": 7606,
      "ibility": 7607,
      "towers": 7608,
      "check": 7609,
      "videos": 7610,
      "stands": 7611,
      "attered": 7612,
      "crim": 7613,
      "courts": 7614,
      "generated": 7615,
      "brothers": 7616,
      "profit": 7617,
      "1909": 7618,
      "Keamy": 7619,
      "seemed": 7620,
      "responsibility": 7621,
      "printed": 7622,
      "convin": 7623,
      "possession": 7624,
      "Commonwealth": 7625,
      "recovered": 7626,
      "Formula": 7627,
      "candidate": 7628,
      "obtained": 7629,
      "Mortal": 7630,
      "arrangement": 7631,
      "opposite": 7632,
      "Jesus": 7633,
      "Attorney": 7634,
      "Kombat": 7635,
      "67": 7636,
      "Bass": 7637,
      "Da": 7638,
      "Flight": 7639,
      "Gun": 7640,
      "Hospital": 7641,
      "Joy": 7642,
      "OC": 7643,
      "Owen": 7644,
      "SS": 7645,
      "hits": 7646,
      "mac": 7647,
      "mature": 7648,
      "pus": 7649,
      "vin": 7650,
      "thosaurus": 7651,
      "atop": 7652,
      "orer": 7653,
      "heim": 7654,
      "chrom": 7655,
      "forcing": 7656,
      "igins": 7657,
      "1912": 7658,
      "proceed": 7659,
      "trust": 7660,
      "estate": 7661,
      "exhaust": 7662,
      "aks": 7663,
      "diag": 7664,
      "serial": 7665,
      "elled": 7666,
      "answ": 7667,
      "annah": 7668,
      "mont": 7669,
      "consult": 7670,
      "Shakes": 7671,
      "Johnston": 7672,
      "Marines": 7673,
      "legend": 7674,
      "Islands": 7675,
      "Islam": 7676,
      "passage": 7677,
      "risis": 7678,
      "solution": 7679,
      "funds": 7680,
      "Germans": 7681,
      "1931": 7682,
      "1935": 7683,
      "limit": 7684,
      "Barbar": 7685,
      "footage": 7686,
      "Poland": 7687,
      "Design": 7688,
      "Descri": 7689,
      "netic": 7690,
      "suffering": 7691,
      "hosted": 7692,
      "reduce": 7693,
      "perspect": 7694,
      "stayed": 7695,
      "learning": 7696,
      "Arabic": 7697,
      "concerned": 7698,
      "linked": 7699,
      "Type": 7700,
      "preserved": 7701,
      "sculpture": 7702,
      "astronom": 7703,
      "basketball": 7704,
      "twelve": 7705,
      "Plunketts": 7706,
      "normally": 7707,
      "Corythosaurus": 7708,
      "Fraser": 7709,
      "controversial": 7710,
      "Shakespe": 7711,
      "82": 7712,
      "Bark": 7713,
      "Late": 7714,
      "Lev": 7715,
      "Link": 7716,
      "Nintend": 7717,
      "Raj": 7718,
      "Stop": 7719,
      "Tig": 7720,
      "Your": 7721,
      "cot": 7722,
      "cold": 7723,
      "hl": 7724,
      "lists": 7725,
      "math": 7726,
      "wan": 7727,
      "ths": 7728,
      "inct": 7729,
      "income": 7730,
      "inaug": 7731,
      "rell": 7732,
      "orb": 7733,
      "sees": 7734,
      "bearing": 7735,
      "destruction": 7736,
      "olay": 7737,
      "context": 7738,
      "1911": 7739,
      "moon": 7740,
      "prohib": 7741,
      "oured": 7742,
      "raise": 7743,
      "ensis": 7744,
      "interpret": 7745,
      "ificial": 7746,
      "numbered": 7747,
      "steel": 7748,
      "attacking": 7749,
      "continuing": 7750,
      "Allah": 7751,
      "1932": 7752,
      "reviewers": 7753,
      "Prof": 7754,
      "Space": 7755,
      "representing": 7756,
      "composer": 7757,
      "Palmy": 7758,
      "Hotel": 7759,
      "Donald": 7760,
      "circulation": 7761,
      "FIA": 7762,
      "Special": 7763,
      "throwing": 7764,
      "equipped": 7765,
      "debate": 7766,
      "province": 7767,
      "Peninsula": 7768,
      "adults": 7769,
      "parallel": 7770,
      "escort": 7771,
      "fixed": 7772,
      "Marlborough": 7773,
      "siege": 7774,
      "erogative": 7775,
      "Shakespeare": 7776,
      "Nintendo": 7777,
      "99": 7778,
      "Dark": 7779,
      "Fa": 7780,
      "Kit": 7781,
      "Pict": 7782,
      "Sem": 7783,
      "Sweet": 7784,
      "Tha": 7785,
      "Ur": 7786,
      "crossing": 7787,
      "kitsune": 7788,
      "map": 7789,
      "nos": 7790,
      "sid": 7791,
      "spr": 7792,
      "sung": 7793,
      "voted": 7794,
      "inet": 7795,
      "remin": 7796,
      "rebels": 7797,
      "amino": 7798,
      "owie": 7799,
      "ithic": 7800,
      "idae": 7801,
      "uscript": 7802,
      "elim": 7803,
      "elabor": 7804,
      "1921": 7805,
      "1929": 7806,
      "plom": 7807,
      "abilities": 7808,
      "atech": 7809,
      "clock": 7810,
      "essential": 7811,
      "Channel": 7812,
      "posure": 7813,
      "lowest": 7814,
      "Anti": 7815,
      "bright": 7816,
      "phr": 7817,
      "understanding": 7818,
      "genetic": 7819,
      "charged": 7820,
      "product": 7821,
      "helic": 7822,
      "helmet": 7823,
      "Construction": 7824,
      "140": 7825,
      "Fei": 7826,
      "promote": 7827,
      "aska": 7828,
      "falling": 7829,
      "Geoff": 7830,
      "Techn": 7831,
      "graphics": 7832,
      "laws": 7833,
      "borne": 7834,
      "driving": 7835,
      "Palace": 7836,
      "meetings": 7837,
      "belt": 7838,
      "Player": 7839,
      "Media": 7840,
      "measures": 7841,
      "holiday": 7842,
      "intensified": 7843,
      "Lawrence": 7844,
      "occasions": 7845,
      "Patrick": 7846,
      "observations": 7847,
      "initiative": 7848,
      "Pitman": 7849,
      "pushed": 7850,
      "Stanley": 7851,
      "victims": 7852,
      "passengers": 7853,
      "remnants": 7854,
      "Netherlands": 7855,
      "Elizabeth": 7856,
      "Labor": 7857,
      "Our": 7858,
      "Rain": 7859,
      "Sar": 7860,
      "Wic": 7861,
      "gard": 7862,
      "gie": 7863,
      "tight": 7864,
      "zi": 7865,
      "toll": 7866,
      "acle": 7867,
      "unsuccessful": 7868,
      "cement": 7869,
      "ctic": 7870,
      "comed": 7871,
      "comments": 7872,
      "utz": 7873,
      "util": 7874,
      "superior": 7875,
      "Ing": 7876,
      "shar": 7877,
      "cloth": 7878,
      "aws": 7879,
      "spur": 7880,
      "anyon": 7881,
      "flash": 7882,
      "retained": 7883,
      "Real": 7884,
      "operating": 7885,
      "1962": 7886,
      "covers": 7887,
      "musicians": 7888,
      "returns": 7889,
      "defences": 7890,
      "Mega": 7891,
      "1959": 7892,
      "quez": 7893,
      "1938": 7894,
      "voiced": 7895,
      "burgh": 7896,
      "involving": 7897,
      "goddess": 7898,
      "Atlanta": 7899,
      "appointment": 7900,
      "villages": 7901,
      "difficulties": 7902,
      "graf": 7903,
      "Queens": 7904,
      "Emperor": 7905,
      "objects": 7906,
      "pitcher": 7907,
      "purchase": 7908,
      "praise": 7909,
      "carrying": 7910,
      "Korean": 7911,
      "vessels": 7912,
      "global": 7913,
      "Guardian": 7914,
      "Cambodia": 7915,
      "Stefani": 7916,
      "batsman": 7917,
      "equivalent": 7918,
      "García": 7919,
      "Bang": 7920,
      "Cult": 7921,
      "Fron": 7922,
      "Furt": 7923,
      "Hud": 7924,
      "Hob": 7925,
      "Nar": 7926,
      "Rug": 7927,
      "Treat": 7928,
      "nav": 7929,
      "pure": 7930,
      "inals": 7931,
      "online": 7932,
      "onica": 7933,
      "renew": 7934,
      "represents": 7935,
      "ensure": 7936,
      "stick": 7937,
      "accompany": 7938,
      "oms": 7939,
      "lyn": 7940,
      "terbury": 7941,
      "otal": 7942,
      "abund": 7943,
      "exchange": 7944,
      "ifies": 7945,
      "iance": 7946,
      "weigh": 7947,
      "internal": 7948,
      "Alf": 7949,
      "ictions": 7950,
      "valid": 7951,
      "Gray": 7952,
      "simultane": 7953,
      "chell": 7954,
      "considers": 7955,
      "classic": 7956,
      "Canterbury": 7957,
      "joining": 7958,
      "periods": 7959,
      "factory": 7960,
      "soul": 7961,
      "styles": 7962,
      "iterranean": 7963,
      "influences": 7964,
      "needs": 7965,
      "Phillies": 7966,
      "ullen": 7967,
      "narrative": 7968,
      "ugal": 7969,
      "Mediterranean": 7970,
      "defeating": 7971,
      "reveals": 7972,
      "Prior": 7973,
      "committed": 7974,
      "atoon": 7975,
      "Enterprise": 7976,
      "camera": 7977,
      "1920s": 7978,
      "behaviour": 7979,
      "Palestine": 7980,
      "Phoen": 7981,
      "Athletic": 7982,
      "preferred": 7983,
      "Aerith": 7984,
      "Grammy": 7985,
      "survivors": 7986,
      "resources": 7987,
      "concerts": 7988,
      "AC": 7989,
      "Bio": 7990,
      "Cur": 7991,
      "Found": 7992,
      "Ky": 7993,
      "Má": 7994,
      "Mir": 7995,
      "Son": 7996,
      "U2": 7997,
      "obl": 7998,
      "rh": 7999
    },
    "merges": [
      [
        "t",
        "h"
      ],
      [
        "i",
        "n"
      ],
      [
        "e",
        "r"
      ],
      [
        "a",
        "n"
      ],
      [
        "th",
        "e"
      ],
      [
        "o",
        "n"
      ],
      [
        "e",
        "d"
      ],
      [
        "r",
        "e"
      ],
      [
        "a",
        "t"
      ],
      [
        "o",
        "r"
      ],
      [
        "e",
        "n"
      ],
      [
        "s",
        "t"
      ],
      [
        "a",
        "l"
      ],
      [
        "a",
        "r"
      ],
      [
        "an",
        "d"
      ],
      [
        "o",
        "f"
      ],
      [
        "a",
        "s"
      ],
      [
        "e",
        "s"
      ],
      [
        "i",
        "s"
      ],
      [
        "in",
        "g"
      ],
      [
        "t",
        "o"
      ],
      [
        "i",
        "t"
      ],
      [
        "o",
        "u"
      ],
      [
        "i",
        "c"
      ],
      [
        "i",
        "on"
      ],
      [
        "h",
        "e"
      ],
      [
        "l",
        "e"
      ],
      [
        "r",
        "o"
      ],
      [
        "a",
        "c"
      ],
      [
        "i",
        "l"
      ],
      [
        "en",
        "t"
      ],
      [
        "a",
        "d"
      ],
      [
        "s",
        "e"
      ],
      [
        "a",
        "m"
      ],
      [
        "o",
        "m"
      ],
      [
        "b",
        "e"
      ],
      [
        "l",
        "y"
      ],
      [
        "c",
        "h"
      ],
      [
        "u",
        "r"
      ],
      [
        "w",
        "as"
      ],
      [
        "f",
        "or"
      ],
      [
        "d",
        "e"
      ],
      [
        "v",
        "e"
      ],
      [
        "T",
        "he"
      ],
      [
        "o",
        "l"
      ],
      [
        "i",
        "r"
      ],
      [
        "i",
        "m"
      ],
      [
        "-",
        "@"
      ],
      [
        "@",
        "-@"
      ],
      [
        "i",
        "g"
      ],
      [
        "v",
        "er"
      ],
      [
        "o",
        "w"
      ],
      [
        "w",
        "h"
      ],
      [
        "u",
        "n"
      ],
      [
        "t",
        "er"
      ],
      [
        "i",
        "th"
      ],
      [
        "a",
        "y"
      ],
      [
        "c",
        "e"
      ],
      [
        "at",
        "ion"
      ],
      [
        "c",
        "on"
      ],
      [
        "th",
        "at"
      ],
      [
        "w",
        "ith"
      ],
      [
        "a",
        "g"
      ],
      [
        "c",
        "t"
      ],
      [
        "i",
        "d"
      ],
      [
        "t",
        "e"
      ],
      [
        "u",
        "s"
      ],
      [
        "b",
        "y"
      ],
      [
        "e",
        "l"
      ],
      [
        "u",
        "l"
      ],
      [
        "r",
        "i"
      ],
      [
        "o",
        "t"
      ],
      [
        "er",
        "e"
      ],
      [
        "a",
        "p"
      ],
      [
        "re",
        "s"
      ],
      [
        "e",
        "t"
      ],
      [
        "1",
        "9"
      ],
      [
        "o",
        "p"
      ],
      [
        "a",
        "in"
      ],
      [
        "c",
        "om"
      ],
      [
        "ro",
        "m"
      ],
      [
        "er",
        "s"
      ],
      [
        "p",
        "l"
      ],
      [
        "u",
        "m"
      ],
      [
        "u",
        "t"
      ],
      [
        "a",
        "b"
      ],
      [
        "ou",
        "n"
      ],
      [
        "al",
        "l"
      ],
      [
        "0",
        "0"
      ],
      [
        "h",
        "is"
      ],
      [
        "m",
        "o"
      ],
      [
        "i",
        "st"
      ],
      [
        "s",
        "u"
      ],
      [
        "a",
        "re"
      ],
      [
        "f",
        "rom"
      ],
      [
        "p",
        "e"
      ],
      [
        "p",
        "ro"
      ],
      [
        "I",
        "n"
      ],
      [
        "s",
        "h"
      ],
      [
        "n",
        "e"
      ],
      [
        "l",
        "i"
      ],
      [
        "t",
        "r"
      ],
      [
        "at",
        "e"
      ],
      [
        "c",
        "l"
      ],
      [
        "o",
        "s"
      ],
      [
        "th",
        "er"
      ],
      [
        "ar",
        "t"
      ],
      [
        "i",
        "es"
      ],
      [
        "e",
        "m"
      ],
      [
        "w",
        "ere"
      ],
      [
        "o",
        "d"
      ],
      [
        "on",
        "g"
      ],
      [
        "ig",
        "h"
      ],
      [
        "e",
        "st"
      ],
      [
        "e",
        "x"
      ],
      [
        "a",
        "k"
      ],
      [
        "o",
        "c"
      ],
      [
        "il",
        "l"
      ],
      [
        "ar",
        "d"
      ],
      [
        "l",
        "d"
      ],
      [
        "ic",
        "h"
      ],
      [
        "a",
        "st"
      ],
      [
        "is",
        "h"
      ],
      [
        "d",
        "i"
      ],
      [
        "b",
        "er"
      ],
      [
        "an",
        "t"
      ],
      [
        "g",
        "h"
      ],
      [
        "it",
        "y"
      ],
      [
        "or",
        "t"
      ],
      [
        "am",
        "e"
      ],
      [
        "at",
        "ed"
      ],
      [
        "p",
        "er"
      ],
      [
        "m",
        "an"
      ],
      [
        "es",
        "s"
      ],
      [
        "i",
        "ve"
      ],
      [
        "q",
        "u"
      ],
      [
        "m",
        "ent"
      ],
      [
        "al",
        "s"
      ],
      [
        "ou",
        "t"
      ],
      [
        "f",
        "e"
      ],
      [
        "ac",
        "k"
      ],
      [
        "en",
        "d"
      ],
      [
        "v",
        "i"
      ],
      [
        "h",
        "ad"
      ],
      [
        "on",
        "e"
      ],
      [
        "e",
        "ar"
      ],
      [
        "t",
        "w"
      ],
      [
        "o",
        "ver"
      ],
      [
        "ou",
        "gh"
      ],
      [
        "ou",
        "r"
      ],
      [
        "h",
        "a"
      ],
      [
        "wh",
        "ich"
      ],
      [
        "or",
        "d"
      ],
      [
        "r",
        "a"
      ],
      [
        "g",
        "e"
      ],
      [
        "oun",
        "d"
      ],
      [
        "n",
        "ot"
      ],
      [
        "in",
        "e"
      ],
      [
        "r",
        "it"
      ],
      [
        "b",
        "ut"
      ],
      [
        "al",
        "ly"
      ],
      [
        "as",
        "s"
      ],
      [
        "g",
        "r"
      ],
      [
        "u",
        "d"
      ],
      [
        "i",
        "f"
      ],
      [
        "i",
        "p"
      ],
      [
        "ac",
        "t"
      ],
      [
        "i",
        "v"
      ],
      [
        "it",
        "s"
      ],
      [
        "C",
        "h"
      ],
      [
        "i",
        "an"
      ],
      [
        "st",
        "r"
      ],
      [
        "igh",
        "t"
      ],
      [
        "ar",
        "y"
      ],
      [
        "h",
        "er"
      ],
      [
        "d",
        "u"
      ],
      [
        "f",
        "ir"
      ],
      [
        "ow",
        "n"
      ],
      [
        "2",
        "00"
      ],
      [
        "a",
        "v"
      ],
      [
        "a",
        "f"
      ],
      [
        "u",
        "p"
      ],
      [
        "ou",
        "s"
      ],
      [
        "p",
        "o"
      ],
      [
        "2",
        "0"
      ],
      [
        "b",
        "l"
      ],
      [
        "o",
        "re"
      ],
      [
        "com",
        "p"
      ],
      [
        "p",
        "ort"
      ],
      [
        "S",
        "t"
      ],
      [
        "l",
        "and"
      ],
      [
        "e",
        "w"
      ],
      [
        "d",
        "er"
      ],
      [
        "e",
        "v"
      ],
      [
        "ac",
        "h"
      ],
      [
        "s",
        "i"
      ],
      [
        "the",
        "ir"
      ],
      [
        "e",
        "p"
      ],
      [
        "ic",
        "al"
      ],
      [
        "fir",
        "st"
      ],
      [
        "w",
        "or"
      ],
      [
        "ou",
        "ld"
      ],
      [
        "ag",
        "e"
      ],
      [
        "i",
        "a"
      ],
      [
        "p",
        "r"
      ],
      [
        "l",
        "l"
      ],
      [
        "b",
        "o"
      ],
      [
        "a",
        "u"
      ],
      [
        "it",
        "ion"
      ],
      [
        "als",
        "o"
      ],
      [
        "t",
        "im"
      ],
      [
        "l",
        "ow"
      ],
      [
        "ct",
        "ion"
      ],
      [
        "p",
        "t"
      ],
      [
        "l",
        "o"
      ],
      [
        "for",
        "m"
      ],
      [
        "at",
        "er"
      ],
      [
        "s",
        "c"
      ],
      [
        "ig",
        "n"
      ],
      [
        "h",
        "as"
      ],
      [
        "s",
        "er"
      ],
      [
        "u",
        "re"
      ],
      [
        "k",
        "e"
      ],
      [
        "at",
        "t"
      ],
      [
        "in",
        "t"
      ],
      [
        "i",
        "al"
      ],
      [
        "re",
        "c"
      ],
      [
        "pl",
        "ay"
      ],
      [
        "ha",
        "ve"
      ],
      [
        "o",
        "ther"
      ],
      [
        "H",
        "e"
      ],
      [
        "1",
        "8"
      ],
      [
        "wh",
        "o"
      ],
      [
        "o",
        "k"
      ],
      [
        "r",
        "an"
      ],
      [
        "om",
        "e"
      ],
      [
        "p",
        "art"
      ],
      [
        "en",
        "ce"
      ],
      [
        "g",
        "u"
      ],
      [
        "be",
        "en"
      ],
      [
        "tw",
        "o"
      ],
      [
        "re",
        "e"
      ],
      [
        "con",
        "t"
      ],
      [
        ".",
        "@"
      ],
      [
        "@",
        ".@"
      ],
      [
        "p",
        "res"
      ],
      [
        "a",
        "w"
      ],
      [
        "ur",
        "ing"
      ],
      [
        "of",
        "f"
      ],
      [
        "d",
        "is"
      ],
      [
        "i",
        "le"
      ],
      [
        "or",
        "y"
      ],
      [
        "th",
        "is"
      ],
      [
        "s",
        "p"
      ],
      [
        "m",
        "e"
      ],
      [
        "I",
        "t"
      ],
      [
        "d",
        "es"
      ],
      [
        "ad",
        "e"
      ],
      [
        "ul",
        "t"
      ],
      [
        "it",
        "e"
      ],
      [
        "p",
        "os"
      ],
      [
        "y",
        "ear"
      ],
      [
        "the",
        "y"
      ],
      [
        "com",
        "m"
      ],
      [
        "20",
        "1"
      ],
      [
        "c",
        "re"
      ],
      [
        "ve",
        "l"
      ],
      [
        "A",
        "n"
      ],
      [
        "el",
        "l"
      ],
      [
        "T",
        "h"
      ],
      [
        "w",
        "e"
      ],
      [
        "af",
        "ter"
      ],
      [
        "an",
        "s"
      ],
      [
        "f",
        "in"
      ],
      [
        "re",
        "n"
      ],
      [
        "c",
        "ent"
      ],
      [
        "o",
        "g"
      ],
      [
        "v",
        "ed"
      ],
      [
        "b",
        "r"
      ],
      [
        "in",
        "cl"
      ],
      [
        "ation",
        "s"
      ],
      [
        "u",
        "e"
      ],
      [
        "ab",
        "le"
      ],
      [
        ",",
        "@"
      ],
      [
        "@",
        ",@"
      ],
      [
        "ic",
        "e"
      ],
      [
        "wor",
        "k"
      ],
      [
        "ur",
        "n"
      ],
      [
        "e",
        "ver"
      ],
      [
        "ac",
        "e"
      ],
      [
        "n",
        "o"
      ],
      [
        "p",
        "re"
      ],
      [
        "r",
        "ic"
      ],
      [
        "ar",
        "k"
      ],
      [
        "m",
        "er"
      ],
      [
        "i",
        "z"
      ],
      [
        "tim",
        "e"
      ],
      [
        "U",
        "n"
      ],
      [
        "f",
        "f"
      ],
      [
        "en",
        "s"
      ],
      [
        "c",
        "o"
      ],
      [
        "s",
        "pe"
      ],
      [
        "an",
        "ce"
      ],
      [
        "in",
        "to"
      ],
      [
        "ion",
        "s"
      ],
      [
        "mo",
        "re"
      ],
      [
        "sh",
        "ip"
      ],
      [
        "an",
        "y"
      ],
      [
        "oun",
        "t"
      ],
      [
        "c",
        "es"
      ],
      [
        "mo",
        "st"
      ],
      [
        "am",
        "p"
      ],
      [
        "a",
        "th"
      ],
      [
        "c",
        "ed"
      ],
      [
        "in",
        "ter"
      ],
      [
        "s",
        "he"
      ],
      [
        "te",
        "m"
      ],
      [
        "r",
        "ed"
      ],
      [
        "as",
        "on"
      ],
      [
        "w",
        "ould"
      ],
      [
        "A",
        "l"
      ],
      [
        "con",
        "d"
      ],
      [
        "h",
        "im"
      ],
      [
        "ol",
        "d"
      ],
      [
        "p",
        "h"
      ],
      [
        "an",
        "n"
      ],
      [
        "us",
        "ed"
      ],
      [
        "m",
        "ain"
      ],
      [
        "an",
        "g"
      ],
      [
        "it",
        "ed"
      ],
      [
        "ct",
        "ed"
      ],
      [
        "i",
        "re"
      ],
      [
        "ing",
        "s"
      ],
      [
        "as",
        "ed"
      ],
      [
        "f",
        "l"
      ],
      [
        "i",
        "e"
      ],
      [
        "f",
        "ore"
      ],
      [
        "be",
        "c"
      ],
      [
        "m",
        "on"
      ],
      [
        "m",
        "in"
      ],
      [
        "incl",
        "ud"
      ],
      [
        "th",
        "ough"
      ],
      [
        "at",
        "es"
      ],
      [
        "ic",
        "t"
      ],
      [
        "A",
        "r"
      ],
      [
        "a",
        "ir"
      ],
      [
        "w",
        "ay"
      ],
      [
        "A",
        "u"
      ],
      [
        "ro",
        "w"
      ],
      [
        "ver",
        "s"
      ],
      [
        "ne",
        "w"
      ],
      [
        "v",
        "is"
      ],
      [
        "a",
        "il"
      ],
      [
        "r",
        "ough"
      ],
      [
        "o",
        "od"
      ],
      [
        "f",
        "t"
      ],
      [
        "ak",
        "e"
      ],
      [
        "b",
        "u"
      ],
      [
        "o",
        "b"
      ],
      [
        "as",
        "e"
      ],
      [
        "r",
        "y"
      ],
      [
        "ic",
        "k"
      ],
      [
        "ent",
        "s"
      ],
      [
        "c",
        "ess"
      ],
      [
        "s",
        "ong"
      ],
      [
        "il",
        "d"
      ],
      [
        "on",
        "ly"
      ],
      [
        "wh",
        "en"
      ],
      [
        "ar",
        "ch"
      ],
      [
        "g",
        "an"
      ],
      [
        "un",
        "der"
      ],
      [
        "u",
        "bl"
      ],
      [
        "re",
        "g"
      ],
      [
        "b",
        "le"
      ],
      [
        "the",
        "m"
      ],
      [
        "is",
        "s"
      ],
      [
        "or",
        "s"
      ],
      [
        "l",
        "es"
      ],
      [
        "c",
        "ol"
      ],
      [
        "o",
        "se"
      ],
      [
        "E",
        "n"
      ],
      [
        "d",
        "uring"
      ],
      [
        "d",
        "ay"
      ],
      [
        "in",
        "d"
      ],
      [
        "k",
        "n"
      ],
      [
        "re",
        "t"
      ],
      [
        "g",
        "ame"
      ],
      [
        "s",
        "on"
      ],
      [
        "er",
        "ed"
      ],
      [
        "R",
        "e"
      ],
      [
        "il",
        "m"
      ],
      [
        "w",
        "ard"
      ],
      [
        "e",
        "en"
      ],
      [
        "g",
        "en"
      ],
      [
        "r",
        "u"
      ],
      [
        "c",
        "an"
      ],
      [
        "ol",
        "low"
      ],
      [
        "ou",
        "th"
      ],
      [
        "ab",
        "out"
      ],
      [
        "i",
        "de"
      ],
      [
        "19",
        "9"
      ],
      [
        "t",
        "s"
      ],
      [
        "se",
        "ason"
      ],
      [
        "th",
        "an"
      ],
      [
        "n",
        "or"
      ],
      [
        "t",
        "en"
      ],
      [
        "l",
        "ar"
      ],
      [
        "o",
        "y"
      ],
      [
        "s",
        "ome"
      ],
      [
        "er",
        "n"
      ],
      [
        "w",
        "rit"
      ],
      [
        "s",
        "y"
      ],
      [
        "ch",
        "ar"
      ],
      [
        "wh",
        "ile"
      ],
      [
        "ag",
        "ain"
      ],
      [
        "th",
        "ree"
      ],
      [
        "str",
        "u"
      ],
      [
        "ation",
        "al"
      ],
      [
        "ul",
        "ar"
      ],
      [
        "C",
        "om"
      ],
      [
        "t",
        "y"
      ],
      [
        "O",
        "n"
      ],
      [
        "s",
        "o"
      ],
      [
        "f",
        "ul"
      ],
      [
        "W",
        "h"
      ],
      [
        "tw",
        "een"
      ],
      [
        "be",
        "tween"
      ],
      [
        "n",
        "um"
      ],
      [
        "pro",
        "du"
      ],
      [
        "rec",
        "ord"
      ],
      [
        "r",
        "on"
      ],
      [
        "th",
        "rough"
      ],
      [
        "t",
        "ed"
      ],
      [
        "at",
        "ing"
      ],
      [
        "wh",
        "ere"
      ],
      [
        "A",
        "s"
      ],
      [
        "i",
        "ed"
      ],
      [
        "l",
        "ater"
      ],
      [
        "1",
        "0"
      ],
      [
        "re",
        "le"
      ],
      [
        "spe",
        "c"
      ],
      [
        "vi",
        "ew"
      ],
      [
        "am",
        "es"
      ],
      [
        "f",
        "ilm"
      ],
      [
        "t",
        "on"
      ],
      [
        "con",
        "s"
      ],
      [
        "e",
        "le"
      ],
      [
        "e",
        "f"
      ],
      [
        "re",
        "l"
      ],
      [
        "c",
        "k"
      ],
      [
        "A",
        "f"
      ],
      [
        "u",
        "st"
      ],
      [
        "ish",
        "ed"
      ],
      [
        "se",
        "t"
      ],
      [
        "m",
        "ade"
      ],
      [
        "L",
        "e"
      ],
      [
        "su",
        "b"
      ],
      [
        "ur",
        "y"
      ],
      [
        "m",
        "y"
      ],
      [
        "the",
        "n"
      ],
      [
        "N",
        "ew"
      ],
      [
        "l",
        "ed"
      ],
      [
        "d",
        "o"
      ],
      [
        "a",
        "id"
      ],
      [
        "mer",
        "ic"
      ],
      [
        "A",
        "meric"
      ],
      [
        "b",
        "um"
      ],
      [
        "oc",
        "k"
      ],
      [
        "in",
        "s"
      ],
      [
        "se",
        "l"
      ],
      [
        "m",
        "a"
      ],
      [
        "ap",
        "pe"
      ],
      [
        "s",
        "ing"
      ],
      [
        "00",
        "0"
      ],
      [
        "J",
        "o"
      ],
      [
        "f",
        "ollow"
      ],
      [
        "g",
        "o"
      ],
      [
        "ter",
        "s"
      ],
      [
        "h",
        "igh"
      ],
      [
        "se",
        "cond"
      ],
      [
        "su",
        "ch"
      ],
      [
        "ro",
        "p"
      ],
      [
        "v",
        "ing"
      ],
      [
        "f",
        "our"
      ],
      [
        "c",
        "ap"
      ],
      [
        "ar",
        "i"
      ],
      [
        "p",
        "ubl"
      ],
      [
        "j",
        "e"
      ],
      [
        "ic",
        "s"
      ],
      [
        "1",
        "6"
      ],
      [
        "m",
        "ed"
      ],
      [
        "w",
        "ell"
      ],
      [
        "i",
        "el"
      ],
      [
        "b",
        "ack"
      ],
      [
        "A",
        "t"
      ],
      [
        "m",
        "us"
      ],
      [
        "D",
        "e"
      ],
      [
        "il",
        "y"
      ],
      [
        "T",
        "his"
      ],
      [
        "u",
        "al"
      ],
      [
        "if",
        "ic"
      ],
      [
        "c",
        "all"
      ],
      [
        ".",
        "."
      ],
      [
        "v",
        "en"
      ],
      [
        "al",
        "bum"
      ],
      [
        "be",
        "fore"
      ],
      [
        "m",
        "i"
      ],
      [
        "c",
        "ri"
      ],
      [
        "c",
        "ur"
      ],
      [
        "f",
        "er"
      ],
      [
        "he",
        "l"
      ],
      [
        "ur",
        "ch"
      ],
      [
        "ar",
        "s"
      ],
      [
        "su",
        "p"
      ],
      [
        "f",
        "ound"
      ],
      [
        "1",
        "2"
      ],
      [
        "En",
        "g"
      ],
      [
        "be",
        "ing"
      ],
      [
        "N",
        "o"
      ],
      [
        "u",
        "b"
      ],
      [
        "th",
        "ere"
      ],
      [
        "year",
        "s"
      ],
      [
        "at",
        "ive"
      ],
      [
        "s",
        "ur"
      ],
      [
        "1",
        "5"
      ],
      [
        "ar",
        "ri"
      ],
      [
        "in",
        "n"
      ],
      [
        "ow",
        "ever"
      ],
      [
        "p",
        "ar"
      ],
      [
        "u",
        "se"
      ],
      [
        "al",
        "e"
      ],
      [
        "1",
        "7"
      ],
      [
        "an",
        "e"
      ],
      [
        "ad",
        "d"
      ],
      [
        "man",
        "y"
      ],
      [
        "kn",
        "own"
      ],
      [
        "si",
        "de"
      ],
      [
        "l",
        "ong"
      ],
      [
        "li",
        "ke"
      ],
      [
        "num",
        "ber"
      ],
      [
        "l",
        "oc"
      ],
      [
        "a",
        "ve"
      ],
      [
        "N",
        "or"
      ],
      [
        "po",
        "int"
      ],
      [
        "ir",
        "d"
      ],
      [
        "it",
        "ies"
      ],
      [
        "ro",
        "s"
      ],
      [
        "ser",
        "ies"
      ],
      [
        "vel",
        "op"
      ],
      [
        "ol",
        "og"
      ],
      [
        "au",
        "se"
      ],
      [
        "re",
        "at"
      ],
      [
        "m",
        "ber"
      ],
      [
        "in",
        "ce"
      ],
      [
        "un",
        "t"
      ],
      [
        "or",
        "n"
      ],
      [
        "ce",
        "pt"
      ],
      [
        "l",
        "ine"
      ],
      [
        "C",
        "on"
      ],
      [
        "in",
        "es"
      ],
      [
        "ch",
        "o"
      ],
      [
        "bo",
        "th"
      ],
      [
        "se",
        "ver"
      ],
      [
        "en",
        "g"
      ],
      [
        "h",
        "n"
      ],
      [
        "p",
        "op"
      ],
      [
        "di",
        "re"
      ],
      [
        "is",
        "e"
      ],
      [
        "B",
        "rit"
      ],
      [
        "ep",
        "is"
      ],
      [
        "ment",
        "s"
      ],
      [
        "includ",
        "ing"
      ],
      [
        "at",
        "ch"
      ],
      [
        "d",
        "own"
      ],
      [
        "ig",
        "in"
      ],
      [
        "again",
        "st"
      ],
      [
        "o",
        "de"
      ],
      [
        "bec",
        "ame"
      ],
      [
        "u",
        "ary"
      ],
      [
        "ou",
        "p"
      ],
      [
        "char",
        "ac"
      ],
      [
        "S",
        "h"
      ],
      [
        "res",
        "s"
      ],
      [
        "I",
        "I"
      ],
      [
        "fe",
        "at"
      ],
      [
        "id",
        "ent"
      ],
      [
        "c",
        "i"
      ],
      [
        "19",
        "8"
      ],
      [
        "c",
        "er"
      ],
      [
        "e",
        "k"
      ],
      [
        "on",
        "d"
      ],
      [
        "t",
        "ain"
      ],
      [
        "iel",
        "d"
      ],
      [
        "3",
        "0"
      ],
      [
        "B",
        "e"
      ],
      [
        "p",
        "ed"
      ],
      [
        "des",
        "cri"
      ],
      [
        "R",
        "o"
      ],
      [
        "appe",
        "ar"
      ],
      [
        "o",
        "st"
      ],
      [
        "Un",
        "ited"
      ],
      [
        "is",
        "ed"
      ],
      [
        "c",
        "le"
      ],
      [
        "te",
        "am"
      ],
      [
        "Jo",
        "hn"
      ],
      [
        "de",
        "c"
      ],
      [
        "u",
        "res"
      ],
      [
        "h",
        "y"
      ],
      [
        "r",
        "un"
      ],
      [
        "su",
        "c"
      ],
      [
        "b",
        "ed"
      ],
      [
        "de",
        "velop"
      ],
      [
        "per",
        "i"
      ],
      [
        "cent",
        "ury"
      ],
      [
        "sh",
        "ow"
      ],
      [
        "Af",
        "ter"
      ],
      [
        "h",
        "ist"
      ],
      [
        "le",
        "ad"
      ],
      [
        "m",
        "em"
      ],
      [
        "cont",
        "in"
      ],
      [
        "u",
        "ch"
      ],
      [
        "st",
        "or"
      ],
      [
        "tr",
        "ans"
      ],
      [
        "or",
        "igin"
      ],
      [
        "he",
        "ad"
      ],
      [
        "l",
        "an"
      ],
      [
        "m",
        "ill"
      ],
      [
        "p",
        "ol"
      ],
      [
        "19",
        "4"
      ],
      [
        "le",
        "t"
      ],
      [
        "st",
        "e"
      ],
      [
        "op",
        "er"
      ],
      [
        "w",
        "est"
      ],
      [
        "le",
        "y"
      ],
      [
        "d",
        "am"
      ],
      [
        "b",
        "all"
      ],
      [
        "v",
        "es"
      ],
      [
        "ro",
        "ad"
      ],
      [
        "s",
        "ign"
      ],
      [
        "s",
        "m"
      ],
      [
        "sever",
        "al"
      ],
      [
        "di",
        "ff"
      ],
      [
        "m",
        "ay"
      ],
      [
        "be",
        "gan"
      ],
      [
        "19",
        "6"
      ],
      [
        "u",
        "ally"
      ],
      [
        "S",
        "he"
      ],
      [
        "er",
        "al"
      ],
      [
        "19",
        "7"
      ],
      [
        "B",
        "r"
      ],
      [
        "un",
        "e"
      ],
      [
        "je",
        "ct"
      ],
      [
        "re",
        "main"
      ],
      [
        "c",
        "ord"
      ],
      [
        "S",
        "e"
      ],
      [
        "ne",
        "ar"
      ],
      [
        "ear",
        "ly"
      ],
      [
        "pres",
        "ent"
      ],
      [
        "w",
        "ar"
      ],
      [
        "c",
        "rit"
      ],
      [
        "m",
        "et"
      ],
      [
        "n",
        "am"
      ],
      [
        "c",
        "over"
      ],
      [
        "end",
        "ed"
      ],
      [
        "a",
        "z"
      ],
      [
        "c",
        "y"
      ],
      [
        "c",
        "ould"
      ],
      [
        "d",
        "id"
      ],
      [
        "M",
        "ar"
      ],
      [
        "m",
        "s"
      ],
      [
        "call",
        "ed"
      ],
      [
        "tr",
        "y"
      ],
      [
        "W",
        "or"
      ],
      [
        "epis",
        "ode"
      ],
      [
        "i",
        "o"
      ],
      [
        "le",
        "g"
      ],
      [
        "p",
        "or"
      ],
      [
        "de",
        "p"
      ],
      [
        "op",
        "le"
      ],
      [
        "sel",
        "f"
      ],
      [
        "F",
        "or"
      ],
      [
        "i",
        "b"
      ],
      [
        "re",
        "ce"
      ],
      [
        "al",
        "ong"
      ],
      [
        "ak",
        "ing"
      ],
      [
        "v",
        "id"
      ],
      [
        "lar",
        "ge"
      ],
      [
        "as",
        "h"
      ],
      [
        "I",
        "s"
      ],
      [
        "d",
        "ist"
      ],
      [
        "g",
        "g"
      ],
      [
        "v",
        "al"
      ],
      [
        "1",
        "3"
      ],
      [
        "m",
        "il"
      ],
      [
        "M",
        "ay"
      ],
      [
        "p",
        "ass"
      ],
      [
        "s",
        "aid"
      ],
      [
        "Americ",
        "an"
      ],
      [
        "in",
        "k"
      ],
      [
        "es",
        "e"
      ],
      [
        "pres",
        "s"
      ],
      [
        "gu",
        "st"
      ],
      [
        "ers",
        "on"
      ],
      [
        "suc",
        "cess"
      ],
      [
        "to",
        "w"
      ],
      [
        "the",
        "se"
      ],
      [
        "iz",
        "ed"
      ],
      [
        "n",
        "ow"
      ],
      [
        "op",
        "en"
      ],
      [
        "gr",
        "ap"
      ],
      [
        "1",
        "4"
      ],
      [
        "c",
        "a"
      ],
      [
        "t",
        "ri"
      ],
      [
        "G",
        "er"
      ],
      [
        "st",
        "em"
      ],
      [
        "f",
        "am"
      ],
      [
        "ri",
        "st"
      ],
      [
        "Brit",
        "ish"
      ],
      [
        "5",
        "0"
      ],
      [
        "mus",
        "ic"
      ],
      [
        "unt",
        "il"
      ],
      [
        "c",
        "ity"
      ],
      [
        "st",
        "art"
      ],
      [
        "over",
        "n"
      ],
      [
        "ros",
        "s"
      ],
      [
        "comp",
        "le"
      ],
      [
        "rele",
        "ased"
      ],
      [
        "x",
        "t"
      ],
      [
        "G",
        "r"
      ],
      [
        "l",
        "ess"
      ],
      [
        "it",
        "t"
      ],
      [
        "s",
        "ame"
      ],
      [
        "ther",
        "n"
      ],
      [
        "iv",
        "ed"
      ],
      [
        "v",
        "ol"
      ],
      [
        "ist",
        "s"
      ],
      [
        "a",
        "h"
      ],
      [
        "s",
        "im"
      ],
      [
        "j",
        "or"
      ],
      [
        "ret",
        "urn"
      ],
      [
        "pl",
        "ac"
      ],
      [
        "i",
        "ous"
      ],
      [
        "k",
        "m"
      ],
      [
        "The",
        "y"
      ],
      [
        "st",
        "ate"
      ],
      [
        "an",
        "k"
      ],
      [
        "are",
        "a"
      ],
      [
        "des",
        "ign"
      ],
      [
        "re",
        "ad"
      ],
      [
        "oc",
        "i"
      ],
      [
        "mill",
        "ion"
      ],
      [
        "ou",
        "se"
      ],
      [
        "fe",
        "ct"
      ],
      [
        "form",
        "ed"
      ],
      [
        "m",
        "en"
      ],
      [
        "bec",
        "ause"
      ],
      [
        "o",
        "ot"
      ],
      [
        "ow",
        "er"
      ],
      [
        "e",
        "ach"
      ],
      [
        "W",
        "ar"
      ],
      [
        "off",
        "ic"
      ],
      [
        "C",
        "ar"
      ],
      [
        "c",
        "he"
      ],
      [
        "en",
        "n"
      ],
      [
        "Au",
        "gust"
      ],
      [
        "l",
        "a"
      ],
      [
        "c",
        "oun"
      ],
      [
        "vi",
        "de"
      ],
      [
        "com",
        "e"
      ],
      [
        "S",
        "ep"
      ],
      [
        "ser",
        "v"
      ],
      [
        "d",
        "r"
      ],
      [
        "li",
        "fe"
      ],
      [
        "e",
        "ast"
      ],
      [
        "pe",
        "ople"
      ],
      [
        "cho",
        "ol"
      ],
      [
        "p",
        "le"
      ],
      [
        "c",
        "ar"
      ],
      [
        "n",
        "ational"
      ],
      [
        "bo",
        "ok"
      ],
      [
        "r",
        "is"
      ],
      [
        "b",
        "od"
      ],
      [
        "ro",
        "te"
      ],
      [
        "str",
        "al"
      ],
      [
        "l",
        "ight"
      ],
      [
        "si",
        "x"
      ],
      [
        "E",
        "u"
      ],
      [
        "sup",
        "port"
      ],
      [
        "f",
        "ield"
      ],
      [
        "J",
        "u"
      ],
      [
        "C",
        "ol"
      ],
      [
        "a",
        "ther"
      ],
      [
        "gr",
        "oup"
      ],
      [
        "i",
        "ver"
      ],
      [
        "ar",
        "ound"
      ],
      [
        "to",
        "p"
      ],
      [
        "ur",
        "ed"
      ],
      [
        "F",
        "e"
      ],
      [
        "is",
        "ion"
      ],
      [
        "H",
        "owever"
      ],
      [
        "P",
        "l"
      ],
      [
        "v",
        "ent"
      ],
      [
        "d",
        "om"
      ],
      [
        "s",
        "ol"
      ],
      [
        "m",
        "ark"
      ],
      [
        "pro",
        "te"
      ],
      [
        "nor",
        "th"
      ],
      [
        "cons",
        "id"
      ],
      [
        "charac",
        "ter"
      ],
      [
        "att",
        "ack"
      ],
      [
        "al",
        "es"
      ],
      [
        "tem",
        "ber"
      ],
      [
        "Sep",
        "tember"
      ],
      [
        "w",
        "ill"
      ],
      [
        "contin",
        "u"
      ],
      [
        "sm",
        "all"
      ],
      [
        "g",
        "et"
      ],
      [
        "ex",
        "t"
      ],
      [
        "B",
        "l"
      ],
      [
        "pos",
        "ition"
      ],
      [
        "re",
        "st"
[...]
